[PAD]
[unused1]
[unused2]
[unused3]
[unused4]
[unused5]
[unused6]
[unused7]
[unused8]
[unused9]
[unused10]
[unused11]
[unused12]
[unused13]
[unused14]
[unused15]
[unused16]
[unused17]
[unused18]
[unused19]
[unused20]
[unused21]
[unused22]
[unused23]
[unused24]
[unused25]
[unused26]
[unused27]
[unused28]
[unused29]
[unused30]
[unused31]
[unused32]
[unused33]
[unused34]
[unused35]
[unused36]
[unused37]
[unused38]
[unused39]
[unused40]
[unused41]
[unused42]
[unused43]
[unused44]
[unused45]
[unused46]
[unused47]
[unused48]
[unused49]
[unused50]
[unused51]
[unused52]
[unused53]
[unused54]
[unused55]
[unused56]
[unused57]
[unused58]
[unused59]
[unused60]
[unused61]
[unused62]
[unused63]
[unused64]
[unused65]
[unused66]
[unused67]
[unused68]
[unused69]
[unused70]
[unused71]
[unused72]
[unused73]
[unused74]
[unused75]
[unused76]
[unused77]
[unused78]
[unused79]
[unused80]
[unused81]
[unused82]
[unused83]
[unused84]
[unused85]
[unused86]
[unused87]
[unused88]
[unused89]
[unused90]
[unused91]
[unused92]
[unused93]
[unused94]
[unused95]
[unused96]
[unused97]
[unused98]
[unused99]
[UNK]
[CLS]
[SEP]
[MASK]
<S>
<T>
!
"
#
$
%
&
'
(
)
*
+
,
-
.
/
0
1
2
3
4
5
6
7
8
9
:
;
<
=
>
?
@
[
\
]
^
_
a
b
c
d
e
f
g
h
i
j
k
l
m
n
o
p
q
r
s
t
u
v
w
x
y
z
{
|
}
~
£
¤
¥
§
©
«
®
°
±
²
³
µ
·
¹
º
»
¼
×
ß
æ
÷
ø
đ
ŋ
ɔ
ə
ɡ
ʰ
ˇ
ˈ
ˊ
ˋ
ˍ
ː
˙
˚
ˢ
α
β
γ
δ
ε
η
θ
ι
κ
λ
μ
ν
ο
π
ρ
ς
σ
τ
υ
φ
χ
ψ
ω
а
б
в
г
д
е
ж
з
и
к
л
м
н
о
п
р
с
т
у
ф
х
ц
ч
ш
ы
ь
я
і
ا
ب
ة
ت
د
ر
س
ع
ل
م
ن
ه
و
ي
۩
ก
ง
น
ม
ย
ร
อ
า
เ
๑
་
ღ
ᄀ
ᄁ
ᄂ
ᄃ
ᄅ
ᄆ
ᄇ
ᄈ
ᄉ
ᄋ
ᄌ
ᄎ
ᄏ
ᄐ
ᄑ
ᄒ
ᅡ
ᅢ
ᅣ
ᅥ
ᅦ
ᅧ
ᅨ
ᅩ
ᅪ
ᅬ
ᅭ
ᅮ
ᅯ
ᅲ
ᅳ
ᅴ
ᅵ
ᆨ
ᆫ
ᆯ
ᆷ
ᆸ
ᆺ
ᆻ
ᆼ
ᗜ
ᵃ
ᵉ
ᵍ
ᵏ
ᵐ
ᵒ
ᵘ
‖
„
†
•
‥
‧
 
‰
′
″
‹
›
※
‿
⁄
ⁱ
⁺
ⁿ
₁
₂
₃
₄
€
℃
№
™
ⅰ
ⅱ
ⅲ
ⅳ
ⅴ
←
↑
→
↓
↔
↗
↘
⇒
∀
−
∕
∙
√
∞
∟
∠
∣
∥
∩
∮
∶
∼
∽
≈
≒
≡
≤
≥
≦
≧
≪
≫
⊙
⋅
⋈
⋯
⌒
①
②
③
④
⑤
⑥
⑦
⑧
⑨
⑩
⑴
⑵
⑶
⑷
⑸
⒈
⒉
⒊
⒋
ⓒ
ⓔ
ⓘ
─
━
│
┃
┅
┆
┊
┌
└
├
┣
═
║
╚
╞
╠
╭
╮
╯
╰
╱
╳
▂
▃
▅
▇
█
▉
▋
▌
▍
▎
■
□
▪
▫
▬
▲
△
▶
►
▼
▽
◆
◇
○
◎
●
◕
◠
◢
◤
☀
★
☆
☕
☞
☺
☼
♀
♂
♠
♡
♣
♥
♦
♪
♫
♬
✈
✔
✕
✖
✦
✨
✪
✰
✿
❀
❤
➜
➤
⦿
、
。
〃
々
〇
〈
〉
《
》
「
」
『
』
【
】
〓
〔
〕
〖
〗
〜
〝
〞
ぁ
あ
ぃ
い
う
ぇ
え
お
か
き
く
け
こ
さ
し
す
せ
そ
た
ち
っ
つ
て
と
な
に
ぬ
ね
の
は
ひ
ふ
へ
ほ
ま
み
む
め
も
ゃ
や
ゅ
ゆ
ょ
よ
ら
り
る
れ
ろ
わ
を
ん
゜
ゝ
ァ
ア
ィ
イ
ゥ
ウ
ェ
エ
ォ
オ
カ
キ
ク
ケ
コ
サ
シ
ス
セ
ソ
タ
チ
ッ
ツ
テ
ト
ナ
ニ
ヌ
ネ
ノ
ハ
ヒ
フ
ヘ
ホ
マ
ミ
ム
メ
モ
ャ
ヤ
ュ
ユ
ョ
ヨ
ラ
リ
ル
レ
ロ
ワ
ヲ
ン
ヶ
・
ー
ヽ
ㄅ
ㄆ
ㄇ
ㄉ
ㄋ
ㄌ
ㄍ
ㄎ
ㄏ
ㄒ
ㄚ
ㄛ
ㄞ
ㄟ
ㄢ
ㄤ
ㄥ
ㄧ
ㄨ
ㆍ
㈦
㊣
㎡
㗎
一
丁
七
万
丈
三
上
下
不
与
丐
丑
专
且
丕
世
丘
丙
业
丛
东
丝
丞
丟
両
丢
两
严
並
丧
丨
个
丫
中
丰
串
临
丶
丸
丹
为
主
丼
丽
举
丿
乂
乃
久
么
义
之
乌
乍
乎
乏
乐
乒
乓
乔
乖
乗
乘
乙
乜
九
乞
也
习
乡
书
乩
买
乱
乳
乾
亀
亂
了
予
争
事
二
于
亏
云
互
五
井
亘
亙
亚
些
亜
亞
亟
亡
亢
交
亥
亦
产
亨
亩
享
京
亭
亮
亲
亳
亵
人
亿
什
仁
仃
仄
仅
仆
仇
今
介
仍
从
仏
仑
仓
仔
仕
他
仗
付
仙
仝
仞
仟
代
令
以
仨
仪
们
仮
仰
仲
件
价
任
份
仿
企
伉
伊
伍
伎
伏
伐
休
伕
众
优
伙
会
伝
伞
伟
传
伢
伤
伦
伪
伫
伯
估
伴
伶
伸
伺
似
伽
佃
但
佇
佈
位
低
住
佐
佑
体
佔
何
佗
佘
余
佚
佛
作
佝
佞
佟
你
佢
佣
佤
佥
佩
佬
佯
佰
佳
併
佶
佻
佼
使
侃
侄
來
侈
例
侍
侏
侑
侖
侗
供
依
侠
価
侣
侥
侦
侧
侨
侬
侮
侯
侵
侶
侷
便
係
促
俄
俊
俎
俏
俐
俑
俗
俘
俚
保
俞
俟
俠
信
俨
俩
俪
俬
俭
修
俯
俱
俳
俸
俺
俾
倆
倉
個
倌
倍
倏
們
倒
倔
倖
倘
候
倚
倜
借
倡
値
倦
倩
倪
倫
倬
倭
倶
债
值
倾
偃
假
偈
偉
偌
偎
偏
偕
做
停
健
側
偵
偶
偷
偻
偽
偿
傀
傅
傍
傑
傘
備
傚
傢
傣
傥
储
傩
催
傭
傲
傳
債
傷
傻
傾
僅
働
像
僑
僕
僖
僚
僥
僧
僭
僮
僱
僵
價
僻
儀
儂
億
儆
儉
儋
儒
儕
儘
償
儡
優
儲
儷
儼
儿
兀
允
元
兄
充
兆
兇
先
光
克
兌
免
児
兑
兒
兔
兖
党
兜
兢
入
內
全
兩
八
公
六
兮
兰
共
兲
关
兴
兵
其
具
典
兹
养
兼
兽
冀
内
円
冇
冈
冉
冊
册
再
冏
冒
冕
冗
写
军
农
冠
冢
冤
冥
冨
冪
冬
冯
冰
冲
决
况
冶
冷
冻
冼
冽
冾
净
凄
准
凇
凈
凉
凋
凌
凍
减
凑
凛
凜
凝
几
凡
凤
処
凪
凭
凯
凰
凱
凳
凶
凸
凹
出
击
函
凿
刀
刁
刃
分
切
刈
刊
刍
刎
刑
划
列
刘
则
刚
创
初
删
判
別
刨
利
刪
别
刮
到
制
刷
券
刹
刺
刻
刽
剁
剂
剃
則
剉
削
剋
剌
前
剎
剐
剑
剔
剖
剛
剜
剝
剣
剤
剥
剧
剩
剪
副
割
創
剷
剽
剿
劃
劇
劈
劉
劊
劍
劏
劑
力
劝
办
功
加
务
劣
动
助
努
劫
劭
励
劲
劳
労
劵
効
劾
势
勁
勃
勇
勉
勋
勐
勒
動
勖
勘
務
勛
勝
勞
募
勢
勤
勧
勳
勵
勸
勺
勻
勾
勿
匀
包
匆
匈
匍
匐
匕
化
北
匙
匝
匠
匡
匣
匪
匮
匯
匱
匹
区
医
匾
匿
區
十
千
卅
升
午
卉
半
卍
华
协
卑
卒
卓
協
单
卖
南
単
博
卜
卞
卟
占
卡
卢
卤
卦
卧
卫
卮
卯
印
危
即
却
卵
卷
卸
卻
卿
厂
厄
厅
历
厉
压
厌
厕
厘
厚
厝
原
厢
厥
厦
厨
厩
厭
厮
厲
厳
去
县
叁
参
參
又
叉
及
友
双
反
収
发
叔
取
受
变
叙
叛
叟
叠
叡
叢
口
古
句
另
叨
叩
只
叫
召
叭
叮
可
台
叱
史
右
叵
叶
号
司
叹
叻
叼
叽
吁
吃
各
吆
合
吉
吊
吋
同
名
后
吏
吐
向
吒
吓
吕
吖
吗
君
吝
吞
吟
吠
吡
否
吧
吨
吩
含
听
吭
吮
启
吱
吳
吴
吵
吶
吸
吹
吻
吼
吽
吾
呀
呂
呃
呆
呈
告
呋
呎
呐
呓
呕
呗
员
呛
呜
呢
呤
呦
周
呱
呲
味
呵
呷
呸
呻
呼
命
咀
咁
咂
咄
咆
咋
和
咎
咏
咐
咒
咔
咕
咖
咗
咘
咙
咚
咛
咣
咤
咦
咧
咨
咩
咪
咫
咬
咭
咯
咱
咲
咳
咸
咻
咽
咿
哀
品
哂
哄
哆
哇
哈
哉
哋
哌
响
哎
哏
哐
哑
哒
哔
哗
哟
員
哥
哦
哧
哨
哩
哪
哭
哮
哲
哺
哼
哽
唁
唄
唆
唇
唉
唏
唐
唑
唔
唠
唤
唧
唬
售
唯
唰
唱
唳
唷
唸
唾
啃
啄
商
啉
啊
問
啓
啕
啖
啜
啞
啟
啡
啤
啥
啦
啧
啪
啫
啬
啮
啰
啱
啲
啵
啶
啷
啸
啻
啼
啾
喀
喂
喃
善
喆
喇
喉
喊
喋
喎
喏
喔
喘
喙
喚
喜
喝
喟
喧
喪
喫
喬
單
喰
喱
喲
喳
喵
営
喷
喹
喺
喻
喽
嗅
嗆
嗇
嗎
嗑
嗒
嗓
嗔
嗖
嗚
嗜
嗝
嗟
嗡
嗣
嗤
嗦
嗨
嗪
嗬
嗯
嗰
嗲
嗳
嗶
嗷
嗽
嘀
嘅
嘆
嘈
嘉
嘌
嘍
嘎
嘔
嘖
嘗
嘘
嘚
嘛
嘜
嘞
嘟
嘢
嘣
嘤
嘧
嘩
嘭
嘮
嘯
嘰
嘱
嘲
嘴
嘶
嘸
嘹
嘻
嘿
噁
噌
噎
噓
噔
噗
噙
噜
噠
噢
噤
器
噩
噪
噬
噱
噴
噶
噸
噹
噻
噼
嚀
嚇
嚎
嚏
嚐
嚓
嚕
嚟
嚣
嚥
嚨
嚮
嚴
嚷
嚼
囂
囉
囊
囍
囑
囔
囗
囚
四
囝
回
囟
因
囡
团
団
囤
囧
囪
囫
园
困
囱
囲
図
围
囹
固
国
图
囿
圃
圄
圆
圈
國
圍
圏
園
圓
圖
團
圜
土
圣
圧
在
圩
圭
地
圳
场
圻
圾
址
坂
均
坊
坍
坎
坏
坐
坑
块
坚
坛
坝
坞
坟
坠
坡
坤
坦
坨
坪
坯
坳
坵
坷
垂
垃
垄
型
垒
垚
垛
垠
垢
垣
垦
垩
垫
垭
垮
垵
埂
埃
埋
城
埔
埕
埗
域
埠
埤
埵
執
埸
培
基
埼
堀
堂
堃
堅
堆
堇
堑
堕
堙
堡
堤
堪
堯
堰
報
場
堵
堺
堿
塊
塌
塑
塔
塗
塘
塚
塞
塢
塩
填
塬
塭
塵
塾
墀
境
墅
墉
墊
墒
墓
増
墘
墙
墜
增
墟
墨
墩
墮
墳
墻
墾
壁
壅
壆
壇
壊
壑
壓
壕
壘
壞
壟
壢
壤
壩
士
壬
壮
壯
声
売
壳
壶
壹
壺
壽
处
备
変
复
夏
夔
夕
外
夙
多
夜
够
夠
夢
夥
大
天
太
夫
夭
央
夯
失
头
夷
夸
夹
夺
夾
奂
奄
奇
奈
奉
奋
奎
奏
奐
契
奔
奕
奖
套
奘
奚
奠
奢
奥
奧
奪
奬
奮
女
奴
奶
奸
她
好
如
妃
妄
妆
妇
妈
妊
妍
妒
妓
妖
妘
妙
妝
妞
妣
妤
妥
妨
妩
妪
妮
妲
妳
妹
妻
妾
姆
姉
姊
始
姍
姐
姑
姒
姓
委
姗
姚
姜
姝
姣
姥
姦
姨
姪
姫
姬
姹
姻
姿
威
娃
娄
娅
娆
娇
娉
娑
娓
娘
娛
娜
娟
娠
娣
娥
娩
娱
娲
娴
娶
娼
婀
婁
婆
婉
婊
婕
婚
婢
婦
婧
婪
婭
婴
婵
婶
婷
婺
婿
媒
媚
媛
媞
媧
媲
媳
媽
媾
嫁
嫂
嫉
嫌
嫑
嫔
嫖
嫘
嫚
嫡
嫣
嫦
嫩
嫲
嫵
嫻
嬅
嬉
嬌
嬗
嬛
嬢
嬤
嬪
嬰
嬴
嬷
嬸
嬿
孀
孃
子
孑
孔
孕
孖
字
存
孙
孚
孛
孜
孝
孟
孢
季
孤
学
孩
孪
孫
孬
孰
孱
孳
孵
學
孺
孽
孿
宁
它
宅
宇
守
安
宋
完
宏
宓
宕
宗
官
宙
定
宛
宜
宝
实
実
宠
审
客
宣
室
宥
宦
宪
宫
宮
宰
害
宴
宵
家
宸
容
宽
宾
宿
寂
寄
寅
密
寇
富
寐
寒
寓
寛
寝
寞
察
寡
寢
寥
實
寧
寨
審
寫
寬
寮
寰
寵
寶
寸
对
寺
寻
导
対
寿
封
専
射
将
將
專
尉
尊
尋
對
導
小
少
尔
尕
尖
尘
尚
尝
尤
尧
尬
就
尴
尷
尸
尹
尺
尻
尼
尽
尾
尿
局
屁
层
屄
居
屆
屈
屉
届
屋
屌
屍
屎
屏
屐
屑
展
屜
属
屠
屡
屢
層
履
屬
屯
山
屹
屿
岀
岁
岂
岌
岐
岑
岔
岖
岗
岘
岙
岚
岛
岡
岩
岫
岬
岭
岱
岳
岷
岸
峇
峋
峒
峙
峡
峤
峥
峦
峨
峪
峭
峯
峰
峴
島
峻
峽
崁
崂
崆
崇
崎
崑
崔
崖
崗
崙
崛
崧
崩
崭
崴
崽
嵇
嵊
嵋
嵌
嵐
嵘
嵩
嵬
嵯
嶂
嶄
嶇
嶋
嶙
嶺
嶼
嶽
巅
巍
巒
巔
巖
川
州
巡
巢
工
左
巧
巨
巩
巫
差
己
已
巳
巴
巷
巻
巽
巾
巿
币
市
布
帅
帆
师
希
帐
帑
帕
帖
帘
帚
帛
帜
帝
帥
带
帧
師
席
帮
帯
帰
帳
帶
帷
常
帼
帽
幀
幂
幄
幅
幌
幔
幕
幟
幡
幢
幣
幫
干
平
年
并
幸
幹
幺
幻
幼
幽
幾
广
庁
広
庄
庆
庇
床
序
庐
库
应
底
庖
店
庙
庚
府
庞
废
庠
度
座
庫
庭
庵
庶
康
庸
庹
庾
廁
廂
廃
廈
廉
廊
廓
廖
廚
廝
廟
廠
廢
廣
廬
廳
延
廷
建
廿
开
弁
异
弃
弄
弈
弊
弋
式
弑
弒
弓
弔
引
弗
弘
弛
弟
张
弥
弦
弧
弩
弭
弯
弱
張
強
弹
强
弼
弾
彅
彆
彈
彌
彎
归
当
录
彗
彙
彝
形
彤
彥
彦
彧
彩
彪
彫
彬
彭
彰
影
彷
役
彻
彼
彿
往
征
径
待
徇
很
徉
徊
律
後
徐
徑
徒
従
徕
得
徘
徙
徜
從
徠
御
徨
復
循
徬
微
徳
徴
徵
德
徹
徼
徽
心
必
忆
忌
忍
忏
忐
忑
忒
忖
志
忘
忙
応
忠
忡
忤
忧
忪
快
忱
念
忻
忽
忿
怀
态
怂
怅
怆
怎
怏
怒
怔
怕
怖
怙
怜
思
怠
怡
急
怦
性
怨
怪
怯
怵
总
怼
恁
恃
恆
恋
恍
恐
恒
恕
恙
恚
恢
恣
恤
恥
恨
恩
恪
恫
恬
恭
息
恰
恳
恵
恶
恸
恺
恻
恼
恿
悄
悅
悉
悌
悍
悔
悖
悚
悟
悠
患
悦
您
悩
悪
悬
悯
悱
悲
悴
悵
悶
悸
悻
悼
悽
情
惆
惇
惊
惋
惑
惕
惘
惚
惜
惟
惠
惡
惦
惧
惨
惩
惫
惬
惭
惮
惯
惰
惱
想
惴
惶
惹
惺
愁
愆
愈
愉
愍
意
愕
愚
愛
愜
感
愣
愤
愧
愫
愷
愿
慄
慈
態
慌
慎
慑
慕
慘
慚
慟
慢
慣
慧
慨
慫
慮
慰
慳
慵
慶
慷
慾
憂
憊
憋
憎
憐
憑
憔
憚
憤
憧
憨
憩
憫
憬
憲
憶
憾
懂
懇
懈
應
懊
懋
懑
懒
懦
懲
懵
懶
懷
懸
懺
懼
懾
懿
戀
戈
戊
戌
戍
戎
戏
成
我
戒
戕
或
战
戚
戛
戟
戡
戦
截
戬
戮
戰
戲
戳
戴
戶
户
戸
戻
戾
房
所
扁
扇
扈
扉
手
才
扎
扑
扒
打
扔
払
托
扛
扣
扦
执
扩
扪
扫
扬
扭
扮
扯
扰
扱
扳
扶
批
扼
找
承
技
抄
抉
把
抑
抒
抓
投
抖
抗
折
抚
抛
抜
択
抟
抠
抡
抢
护
报
抨
披
抬
抱
抵
抹
押
抽
抿
拂
拄
担
拆
拇
拈
拉
拋
拌
拍
拎
拐
拒
拓
拔
拖
拗
拘
拙
拚
招
拜
拟
拡
拢
拣
拥
拦
拧
拨
择
括
拭
拮
拯
拱
拳
拴
拷
拼
拽
拾
拿
持
挂
指
挈
按
挎
挑
挖
挙
挚
挛
挝
挞
挟
挠
挡
挣
挤
挥
挨
挪
挫
振
挲
挹
挺
挽
挾
捂
捅
捆
捉
捋
捌
捍
捎
捏
捐
捕
捞
损
捡
换
捣
捧
捨
捩
据
捱
捲
捶
捷
捺
捻
掀
掂
掃
掇
授
掉
掌
掏
掐
排
掖
掘
掙
掛
掠
採
探
掣
接
控
推
掩
措
掬
掰
掲
掳
掴
掷
掸
掺
揀
揃
揄
揆
揉
揍
描
提
插
揖
揚
換
握
揣
揩
揪
揭
揮
援
揶
揸
揹
揽
搀
搁
搂
搅
損
搏
搐
搓
搔
搖
搗
搜
搞
搡
搪
搬
搭
搵
搶
携
搽
摀
摁
摄
摆
摇
摈
摊
摒
摔
摘
摞
摟
摧
摩
摯
摳
摸
摹
摺
摻
撂
撃
撅
撇
撈
撐
撑
撒
撓
撕
撚
撞
撤
撥
撩
撫
撬
播
撮
撰
撲
撵
撷
撸
撻
撼
撿
擀
擁
擂
擄
擅
擇
擊
擋
操
擎
擒
擔
擘
據
擞
擠
擡
擢
擦
擬
擰
擱
擲
擴
擷
擺
擼
擾
攀
攏
攒
攔
攘
攙
攜
攝
攞
攢
攣
攤
攥
攪
攫
攬
支
收
攸
改
攻
放
政
故
效
敌
敍
敎
敏
救
敕
敖
敗
敘
教
敛
敝
敞
敢
散
敦
敬
数
敲
整
敵
敷
數
斂
斃
文
斋
斌
斎
斐
斑
斓
斗
料
斛
斜
斟
斡
斤
斥
斧
斩
斫
斬
断
斯
新
斷
方
於
施
旁
旃
旅
旋
旌
旎
族
旖
旗
无
既
日
旦
旧
旨
早
旬
旭
旮
旱
时
旷
旺
旻
昀
昂
昆
昇
昉
昊
昌
明
昏
易
昔
昕
昙
星
映
春
昧
昨
昭
是
昱
昴
昵
昶
昼
显
晁
時
晃
晉
晋
晌
晏
晒
晓
晔
晕
晖
晗
晚
晝
晞
晟
晤
晦
晨
晩
普
景
晰
晴
晶
晷
智
晾
暂
暄
暇
暈
暉
暌
暐
暑
暖
暗
暝
暢
暧
暨
暫
暮
暱
暴
暸
暹
曄
曆
曇
曉
曖
曙
曜
曝
曠
曦
曬
曰
曲
曳
更
書
曹
曼
曾
替
最
會
月
有
朋
服
朐
朔
朕
朗
望
朝
期
朦
朧
木
未
末
本
札
朮
术
朱
朴
朵
机
朽
杀
杂
权
杆
杈
杉
李
杏
材
村
杓
杖
杜
杞
束
杠
条
来
杨
杭
杯
杰
東
杳
杵
杷
杼
松
板
极
构
枇
枉
枋
析
枕
林
枚
果
枝
枢
枣
枪
枫
枭
枯
枰
枱
枳
架
枷
枸
柄
柏
某
柑
柒
染
柔
柘
柚
柜
柞
柠
柢
查
柩
柬
柯
柱
柳
柴
柵
査
柿
栀
栃
栄
栅
标
栈
栉
栋
栎
栏
树
栓
栖
栗
校
栩
株
样
核
根
格
栽
栾
桀
桁
桂
桃
桅
框
案
桉
桌
桎
桐
桑
桓
桔
桜
桠
桡
桢
档
桥
桦
桧
桨
桩
桶
桿
梁
梅
梆
梏
梓
梗
條
梟
梢
梦
梧
梨
梭
梯
械
梳
梵
梶
检
棂
棄
棉
棋
棍
棒
棕
棗
棘
棚
棟
棠
棣
棧
森
棱
棲
棵
棹
棺
椁
椅
椋
植
椎
椒
検
椪
椭
椰
椹
椽
椿
楂
楊
楓
楔
楚
楝
楞
楠
楣
楨
楫
業
楮
極
楷
楸
楹
楼
楽
概
榄
榆
榈
榉
榔
榕
榖
榛
榜
榨
榫
榭
榮
榱
榴
榷
榻
槁
槃
構
槌
槍
槎
槐
槓
様
槛
槟
槤
槭
槲
槳
槻
槽
槿
樁
樂
樊
樑
樓
標
樞
樟
模
樣
権
横
樫
樯
樱
樵
樸
樹
樺
樽
樾
橄
橇
橋
橐
橘
橙
機
橡
橢
橫
橱
橹
橼
檀
檄
檎
檐
檔
檗
檜
檢
檬
檯
檳
檸
檻
櫃
櫚
櫛
櫥
櫸
櫻
欄
權
欒
欖
欠
次
欢
欣
欧
欲
欸
欺
欽
款
歆
歇
歉
歌
歎
歐
歓
歙
歛
歡
止
正
此
步
武
歧
歩
歪
歯
歲
歳
歴
歷
歸
歹
死
歼
殁
殃
殆
殇
殉
殊
残
殒
殓
殖
殘
殞
殡
殤
殭
殯
殲
殴
段
殷
殺
殼
殿
毀
毁
毂
毅
毆
毋
母
毎
每
毒
毓
比
毕
毗
毘
毙
毛
毡
毫
毯
毽
氈
氏
氐
民
氓
气
氖
気
氙
氛
氟
氡
氢
氣
氤
氦
氧
氨
氪
氫
氮
氯
氰
氲
水
氷
永
氹
氾
汀
汁
求
汆
汇
汉
汎
汐
汕
汗
汙
汛
汝
汞
江
池
污
汤
汨
汩
汪
汰
汲
汴
汶
汹
決
汽
汾
沁
沂
沃
沅
沈
沉
沌
沏
沐
沒
沓
沖
沙
沛
沟
没
沢
沣
沥
沦
沧
沪
沫
沭
沮
沱
河
沸
油
治
沼
沽
沾
沿
況
泄
泉
泊
泌
泓
法
泗
泛
泞
泠
泡
波
泣
泥
注
泪
泫
泮
泯
泰
泱
泳
泵
泷
泸
泻
泼
泽
泾
洁
洄
洋
洒
洗
洙
洛
洞
津
洩
洪
洮
洱
洲
洵
洶
洸
洹
活
洼
洽
派
流
浃
浄
浅
浆
浇
浊
测
济
浏
浑
浒
浓
浔
浙
浚
浜
浣
浦
浩
浪
浬
浮
浯
浴
海
浸
涂
涅
涇
消
涉
涌
涎
涓
涔
涕
涙
涛
涝
涞
涟
涠
涡
涣
涤
润
涧
涨
涩
涪
涮
涯
液
涵
涸
涼
涿
淀
淄
淅
淆
淇
淋
淌
淑
淒
淖
淘
淙
淚
淞
淡
淤
淦
淨
淩
淪
淫
淬
淮
深
淳
淵
混
淹
淺
添
淼
清
済
渉
渊
渋
渍
渎
渐
渔
渗
渙
渚
減
渝
渠
渡
渣
渤
渥
渦
温
測
渭
港
渲
渴
游
渺
渾
湃
湄
湊
湍
湖
湘
湛
湟
湧
湫
湮
湯
湳
湾
湿
満
溃
溅
溉
溏
源
準
溜
溝
溟
溢
溥
溧
溪
溫
溯
溱
溴
溶
溺
溼
滁
滂
滄
滅
滇
滋
滌
滑
滓
滔
滕
滙
滚
滝
滞
滟
满
滢
滤
滥
滦
滨
滩
滬
滯
滲
滴
滷
滸
滾
滿
漁
漂
漆
漉
漏
漓
演
漕
漠
漢
漣
漩
漪
漫
漬
漯
漱
漲
漳
漸
漾
漿
潆
潇
潋
潍
潑
潔
潘
潛
潜
潞
潟
潢
潤
潦
潧
潭
潮
潰
潴
潸
潺
潼
澀
澄
澆
澈
澍
澎
澗
澜
澡
澤
澧
澱
澳
澹
激
濁
濂
濃
濑
濒
濕
濘
濛
濟
濠
濡
濤
濫
濬
濮
濯
濱
濺
濾
瀅
瀆
瀉
瀋
瀏
瀑
瀕
瀘
瀚
瀛
瀝
瀞
瀟
瀧
瀨
瀬
瀰
瀾
灌
灏
灑
灘
灝
灞
灣
火
灬
灭
灯
灰
灵
灶
灸
灼
災
灾
灿
炀
炁
炅
炉
炊
炎
炒
炔
炕
炖
炙
炜
炫
炬
炭
炮
炯
炳
炷
炸
点
為
炼
炽
烁
烂
烃
烈
烊
烏
烘
烙
烛
烟
烤
烦
烧
烨
烩
烫
烬
热
烯
烷
烹
烽
焉
焊
焕
焖
焗
焘
焙
焚
焜
無
焦
焯
焰
焱
然
焼
煅
煉
煊
煌
煎
煒
煖
煙
煜
煞
煤
煥
煦
照
煨
煩
煮
煲
煸
煽
熄
熊
熏
熒
熔
熙
熟
熠
熨
熬
熱
熵
熹
熾
燁
燃
燄
燈
燉
燊
燎
燒
燔
燕
燙
燜
營
燥
燦
燧
燭
燮
燴
燻
燼
燿
爆
爍
爐
爛
爪
爬
爭
爰
爱
爲
爵
父
爷
爸
爹
爺
爻
爽
爾
牆
片
版
牌
牍
牒
牙
牛
牝
牟
牠
牡
牢
牦
牧
物
牯
牲
牴
牵
特
牺
牽
犀
犁
犄
犊
犍
犒
犢
犧
犬
犯
状
犷
犸
犹
狀
狂
狄
狈
狎
狐
狒
狗
狙
狞
狠
狡
狩
独
狭
狮
狰
狱
狸
狹
狼
狽
猎
猕
猖
猗
猙
猛
猜
猝
猥
猩
猪
猫
猬
献
猴
猶
猷
猾
猿
獄
獅
獎
獐
獒
獗
獠
獣
獨
獭
獰
獲
獵
獷
獸
獺
獻
獼
獾
玄
率
玉
王
玑
玖
玛
玟
玠
玥
玩
玫
玮
环
现
玲
玳
玷
玺
玻
珀
珂
珅
珈
珉
珊
珍
珏
珐
珑
珙
珞
珠
珣
珥
珩
珪
班
珮
珲
珺
現
球
琅
理
琇
琉
琊
琍
琏
琐
琛
琢
琥
琦
琨
琪
琬
琮
琰
琲
琳
琴
琵
琶
琺
琼
瑀
瑁
瑄
瑋
瑕
瑗
瑙
瑚
瑛
瑜
瑞
瑟
瑠
瑣
瑤
瑩
瑪
瑯
瑰
瑶
瑾
璀
璁
璃
璇
璉
璋
璎
璐
璜
璞
璟
璧
璨
環
璽
璿
瓊
瓏
瓒
瓜
瓢
瓣
瓤
瓦
瓮
瓯
瓴
瓶
瓷
甄
甌
甕
甘
甙
甚
甜
生
產
産
甥
甦
用
甩
甫
甬
甭
甯
田
由
甲
申
电
男
甸
町
画
甾
畀
畅
界
畏
畑
畔
留
畜
畝
畢
略
畦
番
畫
異
畲
畳
畴
當
畸
畹
畿
疆
疇
疊
疏
疑
疔
疖
疗
疙
疚
疝
疟
疡
疣
疤
疥
疫
疮
疯
疱
疲
疳
疵
疸
疹
疼
疽
疾
痂
病
症
痈
痉
痊
痍
痒
痔
痕
痘
痙
痛
痞
痠
痢
痣
痤
痧
痨
痪
痫
痰
痱
痴
痹
痺
痼
痿
瘀
瘁
瘋
瘍
瘓
瘘
瘙
瘟
瘠
瘡
瘢
瘤
瘦
瘧
瘩
瘪
瘫
瘴
瘸
瘾
療
癇
癌
癒
癖
癜
癞
癡
癢
癣
癥
癫
癬
癮
癱
癲
癸
発
登
發
白
百
皂
的
皆
皇
皈
皋
皎
皑
皓
皖
皙
皚
皮
皰
皱
皴
皺
皿
盂
盃
盅
盆
盈
益
盎
盏
盐
监
盒
盔
盖
盗
盘
盛
盜
盞
盟
盡
監
盤
盥
盧
盪
目
盯
盱
盲
直
相
盹
盼
盾
省
眈
眉
看
県
眙
眞
真
眠
眦
眨
眩
眯
眶
眷
眸
眺
眼
眾
着
睁
睇
睏
睐
睑
睛
睜
睞
睡
睢
督
睥
睦
睨
睪
睫
睬
睹
睽
睾
睿
瞄
瞅
瞇
瞋
瞌
瞎
瞑
瞒
瞓
瞞
瞟
瞠
瞥
瞧
瞩
瞪
瞬
瞭
瞰
瞳
瞻
瞼
瞿
矇
矍
矗
矚
矛
矜
矢
矣
知
矩
矫
短
矮
矯
石
矶
矽
矾
矿
码
砂
砌
砍
砒
研
砖
砗
砚
砝
砣
砥
砧
砭
砰
砲
破
砷
砸
砺
砼
砾
础
硅
硐
硒
硕
硝
硫
硬
确
硯
硼
碁
碇
碉
碌
碍
碎
碑
碓
碗
碘
碚
碛
碟
碣
碧
碩
碰
碱
碳
碴
確
碼
碾
磁
磅
磊
磋
磐
磕
磚
磡
磨
磬
磯
磲
磷
磺
礁
礎
礙
礡
礦
礪
礫
礴
示
礼
社
祀
祁
祂
祇
祈
祉
祎
祐
祕
祖
祗
祚
祛
祜
祝
神
祟
祠
祢
祥
票
祭
祯
祷
祸
祺
祿
禀
禁
禄
禅
禍
禎
福
禛
禦
禧
禪
禮
禱
禹
禺
离
禽
禾
禿
秀
私
秃
秆
秉
秋
种
科
秒
秘
租
秣
秤
秦
秧
秩
秭
积
称
秸
移
秽
稀
稅
程
稍
税
稔
稗
稚
稜
稞
稟
稠
稣
種
稱
稲
稳
稷
稹
稻
稼
稽
稿
穀
穂
穆
穌
積
穎
穗
穢
穩
穫
穴
究
穷
穹
空
穿
突
窃
窄
窈
窍
窑
窒
窓
窕
窖
窗
窘
窜
窝
窟
窠
窥
窦
窨
窩
窪
窮
窯
窺
窿
竄
竅
竇
竊
立
竖
站
竜
竞
竟
章
竣
童
竭
端
競
竹
竺
竽
竿
笃
笆
笈
笋
笏
笑
笔
笙
笛
笞
笠
符
笨
第
笹
笺
笼
筆
等
筊
筋
筍
筏
筐
筑
筒
答
策
筛
筝
筠
筱
筲
筵
筷
筹
签
简
箇
箋
箍
箏
箐
箔
箕
算
箝
管
箩
箫
箭
箱
箴
箸
節
篁
範
篆
篇
築
篑
篓
篙
篝
篠
篡
篤
篩
篪
篮
篱
篷
簇
簌
簍
簡
簦
簧
簪
簫
簷
簸
簽
簾
簿
籁
籃
籌
籍
籐
籟
籠
籤
籬
籮
籲
米
类
籼
籽
粄
粉
粑
粒
粕
粗
粘
粟
粤
粥
粧
粪
粮
粱
粲
粳
粵
粹
粼
粽
精
粿
糅
糊
糍
糕
糖
糗
糙
糜
糞
糟
糠
糧
糬
糯
糰
糸
系
糾
紀
紂
約
紅
紉
紊
紋
納
紐
紓
純
紗
紘
紙
級
紛
紜
素
紡
索
紧
紫
紮
累
細
紳
紹
紺
終
絃
組
絆
経
結
絕
絞
絡
絢
給
絨
絮
統
絲
絳
絵
絶
絹
綁
綏
綑
經
継
続
綜
綠
綢
綦
綫
綬
維
綱
網
綴
綵
綸
綺
綻
綽
綾
綿
緊
緋
総
緑
緒
緘
線
緝
緞
締
緣
編
緩
緬
緯
練
緹
緻
縁
縄
縈
縛
縝
縣
縫
縮
縱
縴
縷
總
績
繁
繃
繆
繇
繋
織
繕
繚
繞
繡
繩
繪
繫
繭
繳
繹
繼
繽
纂
續
纍
纏
纓
纔
纖
纜
纠
红
纣
纤
约
级
纨
纪
纫
纬
纭
纯
纰
纱
纲
纳
纵
纶
纷
纸
纹
纺
纽
纾
线
绀
练
组
绅
细
织
终
绊
绍
绎
经
绑
绒
结
绔
绕
绘
给
绚
绛
络
绝
绞
统
绡
绢
绣
绥
绦
继
绩
绪
绫
续
绮
绯
绰
绳
维
绵
绶
绷
绸
绻
综
绽
绾
绿
缀
缄
缅
缆
缇
缈
缉
缎
缓
缔
缕
编
缘
缙
缚
缜
缝
缠
缢
缤
缥
缨
缩
缪
缭
缮
缰
缱
缴
缸
缺
缽
罂
罄
罌
罐
网
罔
罕
罗
罚
罡
罢
罩
罪
置
罰
署
罵
罷
罹
羁
羅
羈
羊
羌
美
羔
羚
羞
羟
羡
羣
群
羥
羧
羨
義
羯
羲
羸
羹
羽
羿
翁
翅
翊
翌
翎
習
翔
翘
翟
翠
翡
翦
翩
翰
翱
翳
翹
翻
翼
耀
老
考
耄
者
耆
耋
而
耍
耐
耒
耕
耗
耘
耙
耦
耨
耳
耶
耷
耸
耻
耽
耿
聂
聆
聊
聋
职
聒
联
聖
聘
聚
聞
聪
聯
聰
聲
聳
聴
聶
職
聽
聾
聿
肃
肄
肅
肆
肇
肉
肋
肌
肏
肓
肖
肘
肚
肛
肝
肠
股
肢
肤
肥
肩
肪
肮
肯
肱
育
肴
肺
肽
肾
肿
胀
胁
胃
胄
胆
背
胍
胎
胖
胚
胛
胜
胝
胞
胡
胤
胥
胧
胫
胭
胯
胰
胱
胳
胴
胶
胸
胺
能
脂
脅
脆
脇
脈
脉
脊
脍
脏
脐
脑
脓
脖
脘
脚
脛
脣
脩
脫
脯
脱
脲
脳
脸
脹
脾
腆
腈
腊
腋
腌
腎
腐
腑
腓
腔
腕
腥
腦
腩
腫
腭
腮
腰
腱
腳
腴
腸
腹
腺
腻
腼
腾
腿
膀
膈
膊
膏
膑
膘
膚
膛
膜
膝
膠
膦
膨
膩
膳
膺
膻
膽
膾
膿
臀
臂
臃
臆
臉
臊
臍
臓
臘
臟
臣
臥
臧
臨
自
臬
臭
至
致
臺
臻
臼
臾
舀
舂
舅
舆
與
興
舉
舊
舌
舍
舎
舐
舒
舔
舖
舗
舛
舜
舞
舟
航
舫
般
舰
舱
舵
舶
舷
舸
船
舺
舾
艇
艋
艘
艙
艦
艮
良
艰
艱
色
艳
艷
艹
艺
艾
节
芃
芈
芊
芋
芍
芎
芒
芙
芜
芝
芡
芥
芦
芩
芪
芫
芬
芭
芮
芯
花
芳
芷
芸
芹
芻
芽
芾
苁
苄
苇
苋
苍
苏
苑
苒
苓
苔
苕
苗
苛
苜
苞
苟
苡
苣
若
苦
苫
苯
英
苷
苹
苻
茁
茂
范
茄
茅
茉
茎
茏
茗
茜
茧
茨
茫
茬
茭
茯
茱
茲
茴
茵
茶
茸
茹
茼
荀
荃
荆
草
荊
荏
荐
荒
荔
荖
荘
荚
荞
荟
荠
荡
荣
荤
荥
荧
荨
荪
荫
药
荳
荷
荸
荻
荼
荽
莅
莆
莉
莊
莎
莒
莓
莖
莘
莞
莠
莢
莧
莪
莫
莱
莲
莴
获
莹
莺
莽
莿
菀
菁
菅
菇
菈
菊
菌
菏
菓
菖
菘
菜
菟
菠
菡
菩
華
菱
菲
菸
菽
萁
萃
萄
萊
萋
萌
萍
萎
萘
萝
萤
营
萦
萧
萨
萩
萬
萱
萵
萸
萼
落
葆
葉
著
葚
葛
葡
董
葦
葩
葫
葬
葭
葯
葱
葳
葵
葷
葺
蒂
蒋
蒐
蒔
蒙
蒜
蒞
蒟
蒡
蒨
蒲
蒸
蒹
蒻
蒼
蒿
蓁
蓄
蓆
蓉
蓋
蓑
蓓
蓖
蓝
蓟
蓦
蓬
蓮
蓼
蓿
蔑
蔓
蔔
蔗
蔘
蔚
蔡
蔣
蔥
蔫
蔬
蔭
蔵
蔷
蔺
蔻
蔼
蔽
蕁
蕃
蕈
蕉
蕊
蕎
蕙
蕤
蕨
蕩
蕪
蕭
蕲
蕴
蕻
蕾
薄
薅
薇
薈
薊
薏
薑
薔
薙
薛
薦
薨
薩
薪
薬
薯
薰
薹
藉
藍
藏
藐
藓
藕
藜
藝
藤
藥
藩
藹
藻
藿
蘆
蘇
蘊
蘋
蘑
蘚
蘭
蘸
蘼
蘿
虎
虏
虐
虑
虔
處
虚
虛
虜
虞
號
虢
虧
虫
虬
虱
虹
虻
虽
虾
蚀
蚁
蚂
蚊
蚌
蚓
蚕
蚜
蚝
蚣
蚤
蚩
蚪
蚯
蚱
蚵
蛀
蛆
蛇
蛊
蛋
蛎
蛐
蛔
蛙
蛛
蛟
蛤
蛭
蛮
蛰
蛳
蛹
蛻
蛾
蜀
蜂
蜃
蜆
蜇
蜈
蜊
蜍
蜒
蜓
蜕
蜗
蜘
蜚
蜜
蜡
蜢
蜥
蜱
蜴
蜷
蜻
蜿
蝇
蝈
蝉
蝌
蝎
蝕
蝗
蝙
蝟
蝠
蝦
蝨
蝴
蝶
蝸
蝼
螂
螃
融
螞
螢
螨
螯
螳
螺
蟀
蟄
蟆
蟋
蟎
蟑
蟒
蟠
蟬
蟲
蟹
蟻
蟾
蠅
蠍
蠔
蠕
蠛
蠟
蠡
蠢
蠣
蠱
蠶
蠹
蠻
血
衄
衅
衆
行
衍
術
衔
街
衙
衛
衝
衞
衡
衢
衣
补
表
衩
衫
衬
衮
衰
衲
衷
衹
衾
衿
袁
袂
袄
袅
袈
袋
袍
袒
袖
袜
袞
袤
袪
被
袭
袱
裁
裂
装
裆
裊
裏
裔
裕
裘
裙
補
裝
裟
裡
裤
裨
裱
裳
裴
裸
裹
製
裾
褂
複
褐
褒
褓
褔
褚
褥
褪
褫
褲
褶
褻
襁
襄
襟
襠
襪
襬
襯
襲
西
要
覃
覆
覇
見
規
覓
視
覚
覦
覧
親
覬
観
覷
覺
覽
觀
见
观
规
觅
视
览
觉
觊
觎
觐
觑
角
觞
解
觥
触
觸
言
訂
計
訊
討
訓
訕
訖
託
記
訛
訝
訟
訣
訥
訪
設
許
訳
訴
訶
診
註
証
詆
詐
詔
評
詛
詞
詠
詡
詢
詣
試
詩
詫
詬
詭
詮
詰
話
該
詳
詹
詼
誅
誇
誉
誌
認
誓
誕
誘
語
誠
誡
誣
誤
誥
誦
誨
說
説
読
誰
課
誹
誼
調
諄
談
請
諏
諒
論
諗
諜
諡
諦
諧
諫
諭
諮
諱
諳
諷
諸
諺
諾
謀
謁
謂
謄
謊
謎
謐
謔
謗
謙
講
謝
謠
謨
謬
謹
謾
譁
證
譎
譏
識
譙
譚
譜
警
譬
譯
議
譲
譴
護
譽
讀
變
讓
讚
讞
计
订
认
讥
讧
讨
让
讪
讫
训
议
讯
记
讲
讳
讴
讶
讷
许
讹
论
讼
讽
设
访
诀
证
诃
评
诅
识
诈
诉
诊
诋
词
诏
译
试
诗
诘
诙
诚
诛
话
诞
诟
诠
诡
询
诣
诤
该
详
诧
诩
诫
诬
语
误
诰
诱
诲
说
诵
诶
请
诸
诺
读
诽
课
诿
谀
谁
调
谄
谅
谆
谈
谊
谋
谌
谍
谎
谏
谐
谑
谒
谓
谔
谕
谗
谘
谙
谚
谛
谜
谟
谢
谣
谤
谥
谦
谧
谨
谩
谪
谬
谭
谯
谱
谲
谴
谶
谷
豁
豆
豇
豈
豉
豊
豌
豎
豐
豔
豚
象
豢
豪
豫
豬
豹
豺
貂
貅
貌
貓
貔
貘
貝
貞
負
財
貢
貧
貨
販
貪
貫
責
貯
貰
貳
貴
貶
買
貸
費
貼
貽
貿
賀
賁
賂
賃
賄
資
賈
賊
賑
賓
賜
賞
賠
賡
賢
賣
賤
賦
質
賬
賭
賴
賺
購
賽
贅
贈
贊
贍
贏
贓
贖
贛
贝
贞
负
贡
财
责
贤
败
账
货
质
贩
贪
贫
贬
购
贮
贯
贰
贱
贲
贴
贵
贷
贸
费
贺
贻
贼
贾
贿
赁
赂
赃
资
赅
赈
赊
赋
赌
赎
赏
赐
赓
赔
赖
赘
赚
赛
赝
赞
赠
赡
赢
赣
赤
赦
赧
赫
赭
走
赳
赴
赵
赶
起
趁
超
越
趋
趕
趙
趟
趣
趨
足
趴
趵
趸
趺
趾
跃
跄
跆
跋
跌
跎
跑
跖
跚
跛
距
跟
跡
跤
跨
跩
跪
路
跳
践
跷
跹
跺
跻
踉
踊
踌
踏
踐
踝
踞
踟
踢
踩
踪
踮
踱
踴
踵
踹
蹂
蹄
蹇
蹈
蹉
蹊
蹋
蹑
蹒
蹙
蹟
蹣
蹤
蹦
蹩
蹬
蹭
蹲
蹴
蹶
蹺
蹼
蹿
躁
躇
躉
躊
躋
躍
躏
躪
身
躬
躯
躲
躺
軀
車
軋
軌
軍
軒
軟
転
軸
軼
軽
軾
較
載
輒
輓
輔
輕
輛
輝
輟
輩
輪
輯
輸
輻
輾
輿
轄
轅
轆
轉
轍
轎
轟
车
轧
轨
轩
转
轭
轮
软
轰
轲
轴
轶
轻
轼
载
轿
较
辄
辅
辆
辇
辈
辉
辊
辍
辐
辑
输
辕
辖
辗
辘
辙
辛
辜
辞
辟
辣
辦
辨
辩
辫
辭
辮
辯
辰
辱
農
边
辺
辻
込
辽
达
迁
迂
迄
迅
过
迈
迎
运
近
返
还
这
进
远
违
连
迟
迢
迤
迥
迦
迩
迪
迫
迭
述
迴
迷
迸
迹
迺
追
退
送
适
逃
逅
逆
选
逊
逍
透
逐
递
途
逕
逗
這
通
逛
逝
逞
速
造
逢
連
逮
週
進
逵
逶
逸
逻
逼
逾
遁
遂
遅
遇
遊
運
遍
過
遏
遐
遑
遒
道
達
違
遗
遙
遛
遜
遞
遠
遢
遣
遥
遨
適
遭
遮
遲
遴
遵
遶
遷
選
遺
遼
遽
避
邀
邁
邂
邃
還
邇
邈
邊
邋
邏
邑
邓
邕
邛
邝
邢
那
邦
邨
邪
邬
邮
邯
邰
邱
邳
邵
邸
邹
邺
邻
郁
郅
郊
郎
郑
郜
郝
郡
郢
郤
郦
郧
部
郫
郭
郴
郵
郷
郸
都
鄂
鄉
鄒
鄔
鄙
鄞
鄢
鄧
鄭
鄰
鄱
鄲
鄺
酉
酊
酋
酌
配
酐
酒
酗
酚
酝
酢
酣
酥
酩
酪
酬
酮
酯
酰
酱
酵
酶
酷
酸
酿
醃
醇
醉
醋
醍
醐
醒
醚
醛
醜
醞
醣
醪
醫
醬
醮
醯
醴
醺
釀
釁
采
釉
释
釋
里
重
野
量
釐
金
釗
釘
釜
針
釣
釦
釧
釵
鈀
鈉
鈍
鈎
鈔
鈕
鈞
鈣
鈦
鈪
鈴
鈺
鈾
鉀
鉄
鉅
鉉
鉑
鉗
鉚
鉛
鉤
鉴
鉻
銀
銃
銅
銑
銓
銖
銘
銜
銬
銭
銮
銳
銷
銹
鋁
鋅
鋒
鋤
鋪
鋰
鋸
鋼
錄
錐
錘
錚
錠
錢
錦
錨
錫
錮
錯
録
錳
錶
鍊
鍋
鍍
鍛
鍥
鍰
鍵
鍺
鍾
鎂
鎊
鎌
鎏
鎔
鎖
鎗
鎚
鎧
鎬
鎮
鎳
鏈
鏖
鏗
鏘
鏞
鏟
鏡
鏢
鏤
鏽
鐘
鐮
鐲
鐳
鐵
鐸
鐺
鑄
鑊
鑑
鑒
鑣
鑫
鑰
鑲
鑼
鑽
鑾
鑿
针
钉
钊
钎
钏
钒
钓
钗
钙
钛
钜
钝
钞
钟
钠
钡
钢
钣
钤
钥
钦
钧
钨
钩
钮
钯
钰
钱
钳
钴
钵
钺
钻
钼
钾
钿
铀
铁
铂
铃
铄
铅
铆
铉
铎
铐
铛
铜
铝
铠
铡
铢
铣
铤
铨
铩
铬
铭
铮
铰
铲
铵
银
铸
铺
链
铿
销
锁
锂
锄
锅
锆
锈
锉
锋
锌
锏
锐
锑
错
锚
锟
锡
锢
锣
锤
锥
锦
锭
键
锯
锰
锲
锵
锹
锺
锻
镀
镁
镂
镇
镉
镌
镍
镐
镑
镕
镖
镗
镛
镜
镣
镭
镯
镰
镳
镶
長
长
門
閃
閉
開
閎
閏
閑
閒
間
閔
閘
閡
関
閣
閥
閨
閩
閱
閲
閹
閻
閾
闆
闇
闊
闌
闍
闔
闕
闖
闘
關
闡
闢
门
闪
闫
闭
问
闯
闰
闲
间
闵
闷
闸
闹
闺
闻
闽
闾
阀
阁
阂
阅
阆
阇
阈
阉
阎
阐
阑
阔
阕
阖
阙
阚
阜
队
阡
阪
阮
阱
防
阳
阴
阵
阶
阻
阿
陀
陂
附
际
陆
陇
陈
陋
陌
降
限
陕
陛
陝
陞
陟
陡
院
陣
除
陨
险
陪
陰
陲
陳
陵
陶
陷
陸
険
陽
隅
隆
隈
隊
隋
隍
階
随
隐
隔
隕
隘
隙
際
障
隠
隣
隧
隨
險
隱
隴
隶
隸
隻
隼
隽
难
雀
雁
雄
雅
集
雇
雉
雋
雌
雍
雎
雏
雑
雒
雕
雖
雙
雛
雜
雞
離
難
雨
雪
雯
雰
雲
雳
零
雷
雹
電
雾
需
霁
霄
霆
震
霈
霉
霊
霍
霎
霏
霑
霓
霖
霜
霞
霧
霭
霰
露
霸
霹
霽
霾
靂
靄
靈
青
靓
靖
静
靚
靛
靜
非
靠
靡
面
靥
靦
革
靳
靴
靶
靼
鞅
鞋
鞍
鞏
鞑
鞘
鞠
鞣
鞦
鞭
韆
韋
韌
韓
韜
韦
韧
韩
韬
韭
音
韵
韶
韻
響
頁
頂
頃
項
順
須
頌
預
頑
頒
頓
頗
領
頜
頡
頤
頫
頭
頰
頷
頸
頹
頻
頼
顆
題
額
顎
顏
顔
願
顛
類
顧
顫
顯
顱
顴
页
顶
顷
项
顺
须
顼
顽
顾
顿
颁
颂
预
颅
领
颇
颈
颉
颊
颌
颍
颐
频
颓
颔
颖
颗
题
颚
颛
颜
额
颞
颠
颡
颢
颤
颦
颧
風
颯
颱
颳
颶
颼
飄
飆
风
飒
飓
飕
飘
飙
飚
飛
飞
食
飢
飨
飩
飪
飯
飲
飼
飽
飾
餃
餅
餉
養
餌
餐
餒
餓
餘
餚
餛
餞
餡
館
餮
餵
餾
饅
饈
饋
饌
饍
饑
饒
饕
饗
饞
饥
饨
饪
饬
饭
饮
饯
饰
饱
饲
饴
饵
饶
饷
饺
饼
饽
饿
馀
馁
馄
馅
馆
馈
馋
馍
馏
馒
馔
首
馗
香
馥
馨
馬
馭
馮
馳
馴
駁
駄
駅
駆
駐
駒
駕
駛
駝
駭
駱
駿
騁
騎
騏
験
騙
騨
騰
騷
驀
驅
驊
驍
驒
驕
驗
驚
驛
驟
驢
驥
马
驭
驮
驯
驰
驱
驳
驴
驶
驷
驸
驹
驻
驼
驾
驿
骁
骂
骄
骅
骆
骇
骈
骊
骋
验
骏
骐
骑
骗
骚
骛
骜
骞
骠
骡
骤
骥
骧
骨
骯
骰
骶
骷
骸
骼
髂
髅
髋
髏
髒
髓
體
髖
高
髦
髪
髮
髯
髻
鬃
鬆
鬍
鬓
鬚
鬟
鬢
鬣
鬥
鬧
鬱
鬼
魁
魂
魄
魅
魇
魍
魏
魔
魘
魚
魯
魷
鮑
鮨
鮪
鮭
鮮
鯉
鯊
鯖
鯛
鯨
鯰
鯽
鰍
鰓
鰭
鰲
鰻
鰾
鱈
鱉
鱔
鱗
鱷
鱸
鱼
鱿
鲁
鲈
鲍
鲑
鲛
鲜
鲟
鲢
鲤
鲨
鲫
鲱
鲲
鲶
鲷
鲸
鳃
鳄
鳅
鳌
鳍
鳕
鳖
鳗
鳝
鳞
鳥
鳩
鳳
鳴
鳶
鴉
鴕
鴛
鴦
鴨
鴻
鴿
鵑
鵜
鵝
鵡
鵬
鵰
鵲
鶘
鶩
鶯
鶴
鷗
鷲
鷹
鷺
鸚
鸞
鸟
鸠
鸡
鸢
鸣
鸥
鸦
鸨
鸪
鸭
鸯
鸳
鸵
鸽
鸾
鸿
鹂
鹃
鹄
鹅
鹈
鹉
鹊
鹌
鹏
鹑
鹕
鹘
鹜
鹞
鹤
鹦
鹧
鹫
鹭
鹰
鹳
鹵
鹹
鹼
鹽
鹿
麂
麋
麒
麓
麗
麝
麟
麥
麦
麩
麴
麵
麸
麺
麻
麼
麽
麾
黃
黄
黍
黎
黏
黑
黒
黔
默
黛
黜
黝
點
黠
黨
黯
黴
鼋
鼎
鼐
鼓
鼠
鼬
鼹
鼻
鼾
齁
齊
齋
齐
齒
齡
齢
齣
齦
齿
龄
龅
龈
龊
龋
龌
龍
龐
龔
龕
龙
龚
龛
龜
龟
︰
︱
︶
︿
﹁
﹂
﹍
﹏
﹐
﹑
﹒
﹔
﹕
﹖
﹗
﹙
﹚
﹝
﹞
﹡
﹣
！
＂
＃
＄
％
＆
＇
（
）
＊
＋
，
－
．
／
０
１
２
３
４
５
６
７
８
９
：
；
＜
＝
＞
？
＠
［
＼
］
＾
＿
｀
ａ
ｂ
ｃ
ｄ
ｅ
ｆ
ｇ
ｈ
ｉ
ｊ
ｋ
ｌ
ｍ
ｎ
ｏ
ｐ
ｑ
ｒ
ｓ
ｔ
ｕ
ｖ
ｗ
ｘ
ｙ
ｚ
｛
｜
｝
～
｡
｢
｣
､
･
ｯ
ｰ
ｲ
ｸ
ｼ
ｽ
ﾄ
ﾉ
ﾌ
ﾗ
ﾙ
ﾝ
ﾞ
ﾟ
￣
￥
👍
🔥
😂
😎
...
yam
10
2017
12
11
2016
20
30
15
06
lofter
##s
2015
by
16
14
18
13
24
17
2014
21
##0
22
19
25
23
com
100
00
05
2013
##a
03
09
08
28
##2
50
01
04
##1
27
02
2012
##3
26
##e
07
##8
##5
##6
##4
##9
##7
29
2011
40
##t
2010
##o
##d
##i
2009
##n
app
www
the
##m
31
##c
##l
##y
##r
##g
2008
60
http
200
qq
##p
80
##f
google
pixnet
90
cookies
tripadvisor
500
##er
##k
35
##h
facebook
2007
2000
70
##b
of
##x
##u
45
300
iphone
32
1000
2006
48
ip
36
in
38
3d
##w
##ing
55
ctrip
##on
##v
33
##の
to
34
400
id
2005
it
37
windows
llc
top
99
42
39
000
led
at
##an
41
51
52
46
49
43
53
44
##z
android
58
and
59
2004
56
vr
##か
5000
2003
47
blogthis
twitter
54
##le
150
ok
2018
57
75
cn
no
ios
##in
##mm
##00
800
on
te
3000
65
2001
360
95
ig
lv
120
##ng
##を
##us
##に
pc
てす
──
600
##te
85
2002
88
##ed
html
ncc
wifi
email
64
blog
is
##10
##て
mail
online
##al
dvd
##ic
studio
##は
##℃
##ia
##と
line
vip
72
##q
98
##ce
##en
for
##is
##ra
##es
##j
usb
net
cp
1999
asia
4g
##cm
diy
new
3c
##お
ta
66
language
vs
apple
tw
86
web
##ne
ipad
62
you
##re
101
68
##tion
ps
de
bt
pony
atm
##2017
1998
67
##ch
ceo
##or
go
##na
av
pro
cafe
96
pinterest
97
63
pixstyleme3c
##ta
more
said
##2016
1997
mp3
700
##ll
nba
jun
##20
92
tv
1995
pm
61
76
nbsp
250
##ie
linux
##ma
cd
110
hd
##17
78
##ion
77
6000
am
##th
##st
94
##se
##et
69
180
gdp
my
105
81
abc
89
flash
79
one
93
1990
1996
##ck
gps
##も
##ly
web885
106
2020
91
##ge
4000
1500
xd
boss
isbn
1994
org
##ry
me
love
##11
0fork
73
##12
3g
##ter
##ar
71
82
##la
hotel
130
1970
pk
83
87
140
ie
##os
##30
##el
74
##50
seo
cpu
##ml
p2p
84
may
##る
sun
tue
internet
cc
posted
youtube
##at
##ン
##man
ii
##ル
##15
abs
nt
pdf
yahoo
ago
1980
##it
news
mac
104
##てす
##me
##り
java
1992
spa
##de
##nt
hk
all
plus
la
1993
##mb
##16
##ve
west
##da
160
air
##い
##ps
から
##to
1989
logo
htc
php
https
fi
momo
##son
sat
##ke
##80
ebd
suv
wi
day
apk
##88
##um
mv
galaxy
wiki
or
brake
##ス
1200
する
this
1991
mon
##こ
❤2017
po
##ない
javascript
life
home
june
##ss
system
900
##ー
##０
pp
1988
world
fb
4k
br
##as
ic
ai
leonardo
safari
##60
live
free
xx
wed
win7
kiehl
##co
lg
o2o
##go
us
235
1949
mm
しい
vfm
kanye
##90
##2015
##id
jr
##ey
123
rss
##sa
##ro
##am
##no
thu
fri
350
##sh
##ki
103
comments
name
##のて
##pe
##ine
max
1987
8000
uber
##mi
##ton
wordpress
office
1986
1985
##ment
107
bd
win10
##ld
##li
gmail
bb
dior
##rs
##ri
##rd
##ます
up
cad
##®
dr
して
read
##21
をお
##io
##99
url
1984
pvc
paypal
show
policy
##40
##ty
##18
with
##★
##01
txt
102
##ba
dna
from
post
mini
ar
taiwan
john
##ga
privacy
agoda
##13
##ny
word
##24
##22
##by
##ur
##hz
1982
##ang
265
cookie
netscape
108
##ka
##～
##ad
house
share
note
ibm
code
hello
nike
sim
survey
##016
1979
1950
wikia
##32
##017
5g
cbc
##tor
##kg
1983
##rt
##14
campaign
store
2500
os
##ct
##ts
##°
170
api
##ns
365
excel
##な
##ao
##ら
##し
～～
##nd
university
163
には
518
##70
##ya
##il
##25
pierre
ipo
0020
897
##23
hotels
##ian
のお
125
years
6606
##ers
##26
high
##day
time
##ay
bug
##line
##く
##す
##be
xp
talk2yam
yamservice
10000
coco
##dy
sony
##ies
1978
microsoft
david
people
##ha
1960
instagram
intel
その
##ot
iso
1981
##va
115
##mo
##land
xxx
man
co
ltxsw
##ation
baby
220
##pa
##ol
1945
7000
tag
450
##ue
msn
##31
oppo
##ト
##ca
control
##om
st
chrome
##ure
##ん
be
##き
lol
##19
した
##bo
240
lady
##100
##way
##から
4600
##ko
##do
##un
4s
corporation
168
##ni
herme
##28
ｃｐ
978
##up
##06
ui
##ds
ppt
admin
three
します
bbc
re
128
##48
ca
##015
##35
hp
##ee
tpp
##た
##ive
××
root
##cc
##ました
##ble
##ity
adobe
park
114
et
oled
city
##ex
##ler
##ap
china
##book
20000
view
##ice
global
##km
your
hong
##mg
out
##ms
ng
ebay
##29
menu
ubuntu
##cy
rom
##view
open
ktv
do
server
##lo
if
english
##ね
##５
##oo
1600
##02
step1
kong
club
135
july
inc
1976
mr
hi
##net
touch
##ls
##ii
michael
lcd
##05
##33
phone
james
step2
1300
ios9
##box
dc
##２
##ley
samsung
111
280
pokemon
css
##ent
##les
いいえ
##１
s8
atom
play
bmw
##said
sa
etf
ctrl
♥yoyo♥
##55
2025
##2014
##66
adidas
amazon
1958
##ber
##ner
visa
##77
##der
1800
connectivity
##hi
firefox
109
118
hr
so
style
mark
pop
ol
skip
1975
as
##27
##ir
##61
190
mba
##う
##ai
le
##ver
1900
cafe2017
lte
super
113
129
##ron
amd
like
##☆
are
##ster
we
##sk
paul
data
international
##ft
longchamp
ssd
good
##ート
##ti
reply
##my
↓↓↓
apr
star
##ker
source
136
js
112
get
force
photo
##one
126
##2013
##ow
link
bbs
1972
goods
##lin
python
119
##ip
game
##ics
##ません
blue
##●
520
##45
page
itunes
##03
1955
260
1968
gt
gif
618
##ff
##47
group
くたさい
about
bar
ganji
##nce
music
lee
not
1977
1971
1973
##per
an
faq
comment
##って
days
##ock
116
##bs
1974
1969
v1
player
1956
xbox
sql
fm
f1
139
##ah
210
##lv
##mp
##000
melody
1957
##３
550
17life
199
1966
xml
market
##au
##71
999
##04
what
gl
##95
##age
tips
##68
book
##ting
mysql
can
1959
230
##ung
wonderland
watch
10℃
##ction
9000
mar
mobile
1946
1962
article
##db
part
▲top
party
って
1967
1964
1948
##07
##ore
##op
この
dj
##78
##38
010
main
225
1965
##ong
art
320
ad
134
020
##73
117
pm2
japan
228
##08
ts
1963
##ica
der
sm
##36
2019
##wa
ct
##７
##や
##64
1937
homemesh
search
##85
##れは
##tv
##di
macbook
##９
##くたさい
service
##♥
type
った
750
##ier
##si
##75
##います
##ok
best
##ット
goris
lock
##った
cf
3m
big
##ut
ftp
carol
##vi
１０
1961
happy
sd
##ac
122
anti
pe
cnn
iii
1920
138
##ラ
1940
esp
jan
tags
##98
##51
august
vol
##86
154
##™
##fs
##れ
##sion
design
ac
##ム
press
jordan
ppp
that
key
check
##６
##tt
##㎡
1080p
##lt
power
##42
1952
##bc
vivi
##ック
he
133
121
jpg
##rry
201
175
3500
1947
nb
##ted
##rn
しています
1954
usd
##t00
master
##ンク
001
model
##58
al
##09
1953
##34
ram
goo
ても
##ui
127
1930
red
##ary
rpg
item
##pm
##41
270
##za
project
##2012
hot
td
blogabstract
##ger
##62
650
##44
gr2
##します
##ｍ
black
electronic
nfc
year
asus
また
html5
cindy
##hd
m3
132
esc
##od
booking
##53
fed
tvb
##81
##ina
mit
165
##いる
chan
192
distribution
next
になる
peter
bios
steam
cm
1941
にも
pk10
##ix
##65
##91
dec
nasa
##ana
icecat
00z
b1
will
##46
li
se
##ji
##み
##ard
oct
##ain
jp
##ze
##bi
cio
##56
smart
h5
##39
##port
curve
vpn
##nm
##dia
utc
##あり
12345678910
##52
rmvb
chanel
a4
miss
##and
##im
media
who
##63
she
girl
5s
124
vera
##して
class
vivo
king
##フ
##ei
national
ab
1951
5cm
888
145
ipod
ap
1100
5mm
211
ms
2756
##69
mp4
msci
##po
##89
131
mg
index
380
##bit
##out
##zz
##97
##67
158
apec
##８
photoshop
opec
￥799
ては
##96
##tes
##ast
2g
○○
##ール
￥2899
##ling
##よ
##ory
1938
##ical
kitty
content
##43
step3
##cn
win8
155
vc
1400
iphone7
robert
##した
tcl
137
beauty
##87
en
dollars
##ys
##oc
step
pay
yy
a1
##2011
##lly
##ks
##♪
1939
188
download
1944
sep
exe
ph
います
school
gb
center
pr
street
##board
uv
##37
##lan
winrar
##que
##ua
##com
1942
1936
480
gpu
##４
ettoday
fu
tom
##54
##ren
##via
149
##72
b2b
144
##79
##tch
rose
arm
mb
##49
##ial
##nn
nvidia
step4
mvp
00㎡
york
156
##イ
how
cpi
591
2765
gov
kg
joe
##xx
mandy
pa
##ser
copyright
fashion
1935
don
##け
ecu
##ist
##art
erp
wap
have
##lm
talk
##ek
##ning
##if
ch
##ite
video
1943
cs
san
iot
look
##84
##2010
##ku
october
##ux
trump
##hs
##ide
box
141
first
##ins
april
##ight
##83
185
angel
protected
aa
151
162
x1
m2
##fe
##×
##ho
size
143
min
ofo
fun
gomaji
ex
hdmi
food
dns
march
chris
kevin
##のか
##lla
##pp
##ec
ag
ems
6s
720p
##rm
##ham
off
##92
asp
team
fandom
ed
299
▌♥
##ell
info
されています
##82
sina
4066
161
##able
##ctor
330
399
315
dll
rights
ltd
idc
jul
3kg
1927
142
ma
surface
##76
##ク
～～～
304
mall
eps
146
green
##59
map
space
donald
v2
sodu
##light
1931
148
1700
まて
310
reserved
htm
##han
##57
2d
178
mod
##ise
##tions
152
ti
##shi
doc
1933
icp
055
wang
##ram
shopping
aug
##pi
##well
now
wam
b2
からお
##hu
236
1928
##gb
266
f2
##93
153
mix
##ef
##uan
bwl
##plus
##res
core
##ess
tea
5℃
hktvmall
nhk
##ate
list
##ese
301
feb
4m
inn
ての
nov
159
12345
daniel
##ci
pass
##bet
##nk
coffee
202
ssl
airbnb
##ute
fbi
woshipm
skype
ea
cg
sp
##fc
##www
yes
edge
alt
007
##94
fpga
##ght
##gs
iso9001
さい
##ile
##wood
##uo
image
lin
icon
american
##em
1932
set
says
##king
##tive
blogger
##74
なと
256
147
##ox
##zy
##red
##ium
##lf
nokia
claire
##リ
##ding
november
lohas
##500
##tic
##マ
##cs
##ある
##che
##ire
##gy
##ult
db
january
win
##カ
166
road
ptt
##ま
##つ
198
##fa
##mer
anna
pchome
はい
udn
ef
420
##time
##tte
2030
##ア
g20
white
かかります
1929
308
garden
eleven
di
##おります
chen
309b
777
172
young
cosplay
ちてない
4500
bat
##123
##tra
##ては
kindle
npc
steve
etc
##ern
##｜
call
xperia
ces
travel
sk
s7
##ous
1934
##int
みいたたけます
183
edu
file
cho
qr
##car
##our
186
##ant
##ｄ
eric
1914
rends
##jo
##する
mastercard
##2000
kb
##min
290
##ino
vista
##ris
##ud
jack
2400
##set
169
pos
1912
##her
##ou
taipei
しく
205
beta
##ませんか
232
##fi
express
255
body
##ill
aphojoy
user
december
meiki
##ick
tweet
richard
##av
##ᆫ
iphone6
##dd
ちてすか
views
##mark
321
pd
##００
times
##▲
level
##ash
10g
point
5l
##ome
208
koreanmall
##ak
george
q2
206
wma
tcp
##200
スタッフ
full
mlb
##lle
##watch
tm
run
179
911
smith
business
##und
1919
color
##tal
222
171
##less
moon
4399
##rl
update
pcb
shop
499
157
little
なし
end
##mhz
van
dsp
easy
660
##house
##key
history
##ｏ
oh
##001
##hy
##web
oem
let
was
##2009
##gg
review
##wan
182
##°c
203
uc
title
##val
united
233
2021
##ons
doi
trivago
overdope
sbs
##ance
##ち
grand
special
573032185
imf
216
wx17house
##so
##ーム
audi
##he
london
william
##rp
##ake
science
beach
cfa
amp
ps4
880
##800
##link
##hp
crm
ferragamo
bell
make
##eng
195
under
zh
photos
2300
##style
##ント
via
176
da
##gi
company
i7
##ray
thomas
370
ufo
i5
##max
plc
ben
back
research
8g
173
mike
##pc
##ッフ
september
189
##ace
vps
february
167
pantos
wp
lisa
1921
★★
jquery
night
long
offer
##berg
##news
1911
##いて
ray
fks
wto
せます
over
164
340
##all
##rus
1924
##888
##works
blogtitle
loftpermalink
##→
187
martin
test
ling
km
##め
15000
fda
v3
##ja
##ロ
ｗedding
かある
outlet
family
##ea
をこ
##top
story
##ness
salvatore
##lu
204
swift
215
room
している
oracle
##ul
1925
sam
b2c
week
pi
rock
##のは
##ａ
##けと
##ean
##300
##gle
cctv
after
chinese
##back
powered
x2
##tan
1918
##nes
##イン
canon
only
181
##zi
##las
say
##oe
184
##sd
221
##bot
##world
##zo
sky
made
top100
just
1926
pmi
802
234
gap
##vr
177
les
174
▲topoct
ball
vogue
vi
ing
ofweek
cos
##list
##ort
▲topmay
##なら
##lon
として
last
##tc
##of
##bus
##gen
real
eva
##コ
a3
nas
##lie
##ria
##coin
##bt
▲topapr
his
212
cat
nata
vive
health
⋯⋯
drive
sir
▲topmar
du
cup
##カー
##ook
##よう
##sy
alex
msg
tour
しました
3ce
##word
193
ebooks
r8
block
318
##より
2200
nice
pvp
207
months
1905
rewards
##ther
1917
0800
##xi
##チ
##sc
micro
850
gg
blogfp
op
1922
daily
m1
264
true
##bb
ml
##tar
##のお
##ky
anthony
196
253
##yo
state
218
##ara
##aa
##rc
##tz
##ston
より
gear
##eo
##ade
ge
see
1923
##win
##ura
ss
heart
##den
##ita
down
##sm
el
png
2100
610
rakuten
whatsapp
bay
dream
add
##use
680
311
pad
gucci
mpv
##ode
##fo
island
▲topjun
##▼
223
jason
214
chicago
##❤
しの
##hone
io
##れる
##ことか
sogo
be2
##ology
990
cloud
vcd
##con
2～3
##ford
##joy
##kb
##こさいます
##rade
but
##ach
docker
##ful
rfid
ul
##ase
hit
ford
##star
580
##○
１１
a2
sdk
reading
edited
##are
cmos
##mc
238
siri
light
##ella
##ため
bloomberg
##read
pizza
##ison
jimmy
##vm
college
node
journal
ba
18k
##play
245
##cer
２０
magic
##yu
191
jump
288
tt
##ings
asr
##lia
3200
step5
network
##cd
mc
いします
1234
pixstyleme
273
##600
2800
money
★★★★★
1280
１２
430
bl
みの
act
##tus
tokyo
##rial
##life
emba
##ae
saas
tcs
##rk
##wang
summer
##sp
ko
##ving
390
premium
##その
netflix
##ヒ
uk
mt
##lton
right
frank
two
209
える
##ple
##cal
021
##んな
##sen
##ville
hold
nexus
dd
##ius
てお
##mah
##なく
tila
zero
820
ce
##tin
resort
##ws
charles
old
p10
5d
report
##360
##ru
##には
bus
vans
lt
##est
pv
##レ
links
rebecca
##ツ
##dm
azure
##365
きな
limited
bit
4gb
##mon
1910
moto
##eam
213
1913
var
eos
なとの
226
blogspot
された
699
e3
dos
dm
fc
##ments
##ik
##kw
boy
##bin
##ata
960
er
##せ
219
##vin
##tu
##ula
194
##∥
station
##ろ
##ature
835
files
zara
hdr
top10
nature
950
magazine
s6
marriott
##シ
avira
case
##っと
tab
##ran
tony
##home
oculus
im
##ral
jean
saint
cry
307
rosie
##force
##ini
ice
##bert
のある
##nder
##mber
pet
2600
##◆
plurk
▲topdec
##sis
00kg
▲topnov
720
##ence
tim
##ω
##nc
##ても
##name
log
ips
great
ikea
malaysia
unix
##イト
3600
##ncy
##nie
12000
akb48
##ye
##oid
404
##chi
##いた
oa
xuehai
##1000
##orm
##rf
275
さん
##ware
##リー
980
ho
##pro
text
##era
560
bob
227
##ub
##2008
8891
scp
avi
##zen
2022
mi
wu
museum
qvod
apache
lake
jcb
▲topaug
★★★
ni
##hr
hill
302
ne
weibo
490
ruby
##ーシ
##ヶ
##row
4d
▲topjul
iv
##ish
github
306
mate
312
##スト
##lot
##ane
andrew
のハイト
##tina
t1
rf
ed2k
##vel
##900
way
final
りの
ns
5a
705
197
##メ
sweet
bytes
##ene
▲topjan
231
##cker
##2007
##px
100g
topapp
229
helpapp
rs
low
14k
g4g
care
630
ldquo
あり
##fork
leave
rm
edition
##gan
##zon
##qq
▲topsep
##google
##ism
gold
224
explorer
##zer
toyota
category
select
visual
##labels
restaurant
##md
posts
s1
##ico
もっと
angelababy
123456
217
sports
s3
mbc
1915
してくたさい
shell
x86
candy
##new
kbs
face
xl
470
##here
4a
swissinfo
v8
▲topfeb
dram
##ual
##vice
3a
##wer
sport
q1
ios10
public
int
card
##ｃ
ep
au
rt
##れた
1080
bill
##mll
kim
３０
460
wan
##uk
##ミ
x3
298
0t
scott
##ming
239
e5
##3d
h7n9
worldcat
brown
##あります
##vo
##led
##580
##ax
249
410
##ert
paris
##～6
polo
925
##lr
599
##ナ
capital
##hing
bank
cv
1g
##chat
##ｓ
##たい
adc
##ule
2m
##ｅ
digital
hotmail
268
##pad
870
bbq
quot
##ring
before
wali
##まて
mcu
2k
2b
という
costco
316
north
333
switch
##city
##ｐ
philips
##mann
management
panasonic
##cl
##vd
##ping
##rge
alice
##lk
##ましょう
css3
##ney
vision
alpha
##ular
##400
##tter
lz
にお
##ありません
mode
gre
1916
pci
##tm
237
1～2
##yan
##そ
について
##let
##キ
work
war
coach
ah
mary
##ᅵ
huang
##pt
a8
pt
follow
##berry
1895
##ew
a5
ghost
##ション
##wn
##og
south
##code
girls
##rid
action
villa
git
r11
table
games
##cket
error
##anonymoussaid
##ag
here
##ame
##gc
qa
##■
##lis
gmp
##gin
vmalife
##cher
yu
wedding
##tis
demo
dragon
530
soho
social
bye
##rant
river
orz
acer
325
##↑
##ース
##ats
261
del
##ven
440
ups
##ように
##ター
305
value
macd
yougou
##dn
661
##ano
ll
##urt
##rent
continue
script
##wen
##ect
paper
263
319
shift
##chel
##フト
##cat
258
x5
fox
243
##さん
car
aaa
##blog
loading
##yn
##tp
kuso
799
si
sns
イカせるテンマ
ヒンクテンマ3
rmb
vdc
forest
central
prime
help
ultra
##rmb
##ような
241
square
688
##しい
のないフロクに
##field
##reen
##ors
##ju
c1
start
510
##air
##map
cdn
##wo
cba
stephen
m8
100km
##get
opera
##base
##ood
vsa
com™
##aw
##ail
251
なのて
count
t2
##ᅡ
##een
2700
hop
##gp
vsc
tree
##eg
##ose
816
285
##ories
##shop
alphago
v4
1909
simon
##ᆼ
fluke62max
zip
スホンサー
##sta
louis
cr
bas
##～10
bc
##yer
hadoop
##ube
##wi
1906
0755
hola
##low
place
centre
5v
d3
##fer
252
##750
##media
281
540
0l
exchange
262
series
##ハー
##san
eb
##bank
##ｋ
q3
##nge
##mail
take
##lp
259
1888
client
east
cache
event
vincent
##ールを
きを
##nse
sui
855
adchoice
##и
##stry
##なたの
246
##zone
ga
apps
sea
##ab
248
cisco
##タ
##rner
kymco
##care
dha
##pu
##yi
minkoff
royal
p1
への
annie
269
collection
kpi
playstation
257
になります
866
bh
##bar
queen
505
radio
1904
andy
armani
##xy
manager
iherb
##ery
##share
spring
raid
johnson
1908
##ob
volvo
hall
##ball
v6
our
taylor
##hk
bi
242
##cp
kate
bo
water
technology
##rie
サイトは
277
##ona
##sl
hpv
303
gtx
hip
rdquo
jayz
stone
##lex
##rum
namespace
##やり
620
##ale
##atic
des
##erson
##ql
##ves
##type
enter
##この
##てきます
d2
##168
##mix
##bian
との
a9
jj
ky
##lc
access
movie
##hc
リストに
tower
##ration
##mit
ます
##nch
ua
tel
prefix
##o2
1907
##point
1901
ott
～10
##http
##ury
baidu
##ink
member
##logy
bigbang
nownews
##js
##shot
##tb
##こと
247
eba
##tics
##lus
ける
v5
spark
##ama
there
##ions
god
##lls
##down
hiv
##ress
burberry
day2
##kv
◆◆
jeff
related
film
edit
joseph
283
##ark
cx
32gb
order
g9
30000
##ans
##tty
s5
##bee
かあります
thread
xr
buy
sh
005
land
spotify
mx
##ari
276
##verse
×email
sf
why
##ことて
244
7headlines
nego
sunny
dom
exo
401
666
positioning
fit
rgb
##tton
278
kiss
alexa
adam
lp
みリストを
##ｇ
mp
##ties
##llow
amy
##du
np
002
institute
271
##rth
##lar
2345
590
##des
sidebar
１５
imax
site
##cky
##kit
##ime
##009
season
323
##fun
##ンター
##ひ
gogoro
a7
pu
lily
fire
twd600
##ッセーシを
いて
##vis
30ml
##cture
##をお
information
##オ
close
friday
##くれる
yi
nick
てすか
##tta
##tel
6500
##lock
cbd
economy
254
かお
267
tinker
double
375
8gb
voice
##app
oops
channel
today
985
##right
raw
xyz
##＋
jim
edm
##cent
7500
supreme
814
ds
##its
##asia
dropbox
##てすか
##tti
books
272
100ml
##tle
##ller
##ken
##more
##boy
sex
309
##dom
t3
##ider
##なります
##unch
1903
810
feel
5500
##かった
##put
により
s2
mo
##gh
men
ka
amoled
div
##tr
##n1
port
howard
##tags
ken
dnf
##nus
adsense
##а
ide
##へ
buff
thunder
##town
##ique
has
##body
auto
pin
##erry
tee
てした
295
number
##the
##013
object
psp
cool
udnbkk
16gb
##mic
miui
##tro
most
r2
##alk
##nity
1880
±0
##いました
428
s4
law
version
##oa
n1
sgs
docomo
##tf
##ack
henry
fc2
##ded
##sco
##014
##rite
286
0mm
linkedin
##ada
##now
wii
##ndy
ucbug
##◎
sputniknews
legalminer
##ika
##xp
2gb
##bu
q10
oo
b6
come
##rman
cheese
ming
maker
##gm
nikon
##fig
ppi
kelly
##ります
jchere
てきます
ted
md
003
fgo
tech
##tto
dan
soc
##gl
##len
hair
earth
640
521
img
##pper
##a1
##てきる
##ロク
acca
##ition
##ference
suite
##ig
outlook
##mond
##cation
398
##pr
279
101vip
358
##999
282
64gb
3800
345
airport
##over
284
##おり
jones
##ith
lab
##su
##いるのて
co2
town
piece
##llo
no1
vmware
24h
##qi
focus
reader
##admin
##ora
tb
false
##log
1898
know
lan
838
##ces
f4
##ume
motel
stop
##oper
na
flickr
netcomponents
##af
##─
pose
williams
local
##ound
##cg
##site
##iko
いお
274
5m
gsm
con
##ath
1902
friends
##hip
cell
317
##rey
780
cream
##cks
012
##dp
facebooktwitterpinterestgoogle
sso
324
shtml
song
swiss
##mw
##キンク
lumia
xdd
string
tiffany
522
marc
られた
insee
russell
sc
dell
##ations
ｏｋ
camera
289
##vs
##flow
##late
classic
287
##nter
stay
g1
mtv
512
##ever
##lab
##nger
qe
sata
ryan
d1
50ml
cms
##cing
su
292
3300
editor
296
##nap
security
sunday
association
##ens
##700
##bra
acg
##かり
sofascore
とは
mkv
##ign
jonathan
gary
build
labels
##oto
tesla
moba
qi
gohappy
general
ajax
1024
##かる
サイト
society
##test
##urs
wps
fedora
##ich
mozilla
328
##480
##dr
usa
urn
##lina
##ｒ
grace
##die
##try
##ader
1250
##なり
elle
570
##chen
##ᆯ
price
##ten
uhz
##ough
eq
##hen
states
push
session
balance
wow
506
##cus
##py
when
##ward
##ep
34e
wong
library
prada
##サイト
##cle
running
##ree
313
ck
date
q4
##ctive
##ool
##＞
mk
##ira
##163
388
die
secret
rq
dota
buffet
は１ヶ
e6
##ez
pan
368
ha
##card
##cha
2a
##さ
alan
day3
eye
f3
##end
france
keep
adi
rna
tvbs
##ala
solo
nova
##え
##tail
##ょう
support
##ries
##なる
##ved
base
copy
iis
fps
##ways
hero
hgih
profile
fish
mu
ssh
entertainment
chang
##wd
click
cake
##ond
pre
##tom
kic
pixel
##ov
##fl
product
6a
##pd
dear
##gate
es
yumi
audio
##²
##sky
echo
bin
where
##ture
329
##ape
find
sap
isis
##なと
nand
##101
##load
##ream
band
a6
525
never
##post
festival
50cm
##we
555
guide
314
zenfone
##ike
335
gd
forum
jessica
strong
alexander
##ould
software
allen
##ious
program
360°
else
lohasthree
##gar
することかてきます
please
##れます
rc
##ggle
##ric
bim
50000
##own
eclipse
355
brian
3ds
##side
061
361
##other
##ける
##tech
##ator
485
engine
##ged
##ｔ
plaza
##fit
cia
ngo
westbrook
shi
tbs
50mm
##みませんか
sci
291
reuters
##ily
contextlink
##hn
af
##cil
bridge
very
##cel
1890
cambridge
##ize
15g
##aid
##data
790
frm
##head
award
butler
##sun
meta
##mar
america
ps3
puma
pmid
##すか
lc
670
kitchen
##lic
オーフン5
きなしソフトサーヒス
そして
day1
future
★★★★
##text
##page
##rris
pm1
##ket
fans
##っています
1001
christian
bot
kids
trackback
##hai
c3
display
##hl
n2
1896
idea
さんも
##sent
airmail
##ug
##men
pwm
けます
028
##lution
369
852
awards
schemas
354
asics
wikipedia
font
##tional
##vy
c2
293
##れている
##dget
##ein
っている
contact
pepper
スキル
339
##～5
294
##uel
##ument
730
##hang
みてす
q5
##sue
rain
##ndi
wei
swatch
##cept
わせ
331
popular
##ste
##tag
p2
501
trc
1899
##west
##live
justin
honda
ping
messenger
##rap
v9
543
##とは
unity
appqq
はすへて
025
leo
##tone
##テ
##ass
uniqlo
##010
502
her
jane
memory
moneydj
##tical
human
12306
していると
##m2
coc
miacare
##mn
tmt
##core
vim
kk
##may
fan
target
use
too
338
435
2050
867
737
fast
##2c
services
##ope
omega
energy
##わ
pinkoi
1a
##なから
##rain
jackson
##ement
##シャンルの
374
366
そんな
p9
rd
##ᆨ
1111
##tier
##vic
zone
##│
385
690
dl
isofix
cpa
m4
322
kimi
めて
davis
##lay
lulu
##uck
050
weeks
qs
##hop
920
##ｎ
ae
##ear
～5
eia
405
##fly
korea
jpeg
boost
##ship
small
##リア
1860
eur
297
425
valley
##iel
simple
##ude
rn
k2
##ena
されます
non
patrick
しているから
##ナー
feed
5757
30g
process
well
qqmei
##thing
they
aws
lu
pink
##ters
##kin
または
board
##vertisement
wine
##ien
unicode
##dge
r1
359
##tant
いを
##twitter
##3c
cool1
される
##れて
##ｌ
isp
##012
standard
45㎡2
402
##150
matt
##fu
326
##iner
googlemsn
pixnetfacebookyahoo
##ラン
x7
886
##uce
メーカー
sao
##ev
##きました
##file
9678
403
xddd
shirt
6l
##rio
##hat
3mm
givenchy
ya
bang
##lio
monday
crystal
ロクイン
##abc
336
head
890
ubuntuforumwikilinuxpastechat
##vc
##～20
##rity
cnc
7866
ipv6
null
1897
##ost
yang
imsean
tiger
##fet
##ンス
352
##＝
dji
327
ji
maria
##come
##んて
foundation
3100
##beth
##なった
1m
601
active
##aft
##don
3p
sr
349
emma
##khz
living
415
353
1889
341
709
457
sas
x6
##face
pptv
x4
##mate
han
sophie
##jing
337
fifa
##mand
other
sale
inwedding
##gn
てきちゃいます
##mmy
##pmlast
bad
nana
nbc
してみてくたさいね
なとはお
##wu
##かあります
##あ
note7
single
##340
せからこ
してくたさい♪この
しにはとんとんワークケートを
するとあなたにもっとマッチした
ならワークケートへ
もみつかっちゃうかも
ワークケートの
##bel
window
##dio
##ht
union
age
382
１４
##ivity
##ｙ
コメント
domain
neo
##isa
##lter
5k
f5
steven
##cts
powerpoint
tft
self
g2
ft
##テル
zol
##act
mwc
381
343
もう
nbapop
408
てある
eds
ace
##room
previous
author
tomtom
il
##ets
hu
financial
☆☆☆
っています
bp
5t
chi
1gb
##hg
fairmont
cross
008
gay
h2
function
##けて
356
also
1b
625
##ータ
##raph
1894
3～5
##ils
i3
334
avenue
##host
による
##bon
##tsu
message
navigation
50g
fintech
h6
##ことを
8cm
##ject
##vas
##firm
credit
##wf
xxxx
form
##nor
##space
huawei
plan
json
sbl
##dc
machine
921
392
wish
##120
##sol
windows7
edward
##ために
development
washington
##nsis
lo
818
##sio
##ym
##bor
planet
##～8
##wt
ieee
gpa
##めて
camp
ann
gm
##tw
##oka
connect
##rss
##work
##atus
wall
chicken
soul
2mm
##times
fa
##ather
##cord
009
##eep
hitachi
gui
harry
##pan
e1
disney
##press
##ーション
wind
386
frigidaire
##tl
liu
hsu
332
basic
von
ev
いた
てきる
スホンサーサイト
learning
##ull
expedia
archives
change
##wei
santa
cut
ins
6gb
turbo
brand
cf1
508
004
return
747
##rip
h1
##nis
##をこ
128gb
##にお
3t
application
しており
emc
rx
##oon
384
quick
412
15058
wilson
wing
chapter
##bug
beyond
##cms
##dar
##oh
zoom
e2
trip
sb
##nba
rcep
342
aspx
ci
080
gc
gnu
める
##count
advanced
dance
dv
##url
##ging
367
8591
am09
shadow
battle
346
##ｉ
##cia
##という
emily
##のてす
##tation
host
ff
techorz
sars
##mini
##mporary
##ering
nc
4200
798
##next
cma
##mbps
##gas
##ift
##dot
##ィ
455
##～17
amana
##りの
426
##ros
ir
00㎡1
##eet
##ible
##↓
710
ˋ▽ˊ
##aka
dcs
iq
##ｖ
l1
##lor
maggie
##011
##iu
588
##～1
830
##gt
1tb
articles
create
##burg
##iki
database
fantasy
##rex
##cam
dlc
dean
##you
hard
path
gaming
victoria
maps
cb
##lee
##itor
overchicstoretvhome
systems
##xt
416
p3
sarah
760
##nan
407
486
x9
install
second
626
##ann
##ph
##rcle
##nic
860
##nar
ec
##とう
768
metro
chocolate
##rian
～4
##table
##しています
skin
##sn
395
mountain
##0mm
inparadise
6m
7x24
ib
4800
##jia
eeworld
creative
g5
g3
357
parker
ecfa
village
からの
18000
sylvia
サーヒス
hbl
##ques
##onsored
##x2
##きます
##v4
##tein
ie6
383
##stack
389
ver
##ads
##baby
sound
bbe
##110
##lone
##uid
ads
022
gundam
351
thinkpad
006
scrum
match
##ave
mems
##470
##oy
##なりました
##talk
glass
lamigo
span
##eme
job
##a5
jay
wade
kde
498
##lace
ocean
tvg
##covery
##r3
##ners
##rea
junior
think
##aine
cover
##ision
##sia
↓↓
##bow
msi
413
458
406
##love
711
801
soft
z2
##pl
456
1840
mobil
mind
##uy
427
nginx
##oi
めた
##rr
6221
##mple
##sson
##ーシてす
371
##nts
91tv
comhd
crv3000
##uard
1868
397
deep
lost
field
gallery
##bia
rate
spf
redis
traction
930
icloud
011
なら
fe
jose
372
##tory
into
sohu
fx
899
379
kicstart2
##hia
すく
##～3
##sit
ra
２４
##walk
##xure
500g
##pact
pacific
xa
natural
carlo
##250
##walker
1850
##can
cto
gigi
516
##サー
pen
##hoo
ob
matlab
##ｂ
##yy
13913459
##iti
mango
##bbs
sense
c5
oxford
##ニア
walker
jennifer
##ola
course
##bre
701
##pus
##rder
lucky
075
##ぁ
ivy
なお
##nia
sotheby
side
##ugh
joy
##orage
##ush
##bat
##dt
364
r9
##2d
##gio
511
country
wear
##lax
##～7
##moon
393
seven
study
411
348
lonzo
8k
##ェ
evolution
##イフ
##kk
gs
kd
##レス
arduino
344
b12
##lux
arpg
##rdon
cook
##x5
dark
five
##als
##ida
とても
sign
362
##ちの
something
20mm
##nda
387
##posted
fresh
tf
1870
422
cam
##mine
##skip
##form
##ssion
education
394
##tee
dyson
stage
##jie
want
##night
epson
pack
あります
##ppy
テリヘル
##█
wd
##eh
##rence
left
##lvin
golden
mhz
discovery
##trix
##n2
loft
##uch
##dra
##sse
speed
～1
1mdb
sorry
welcome
##urn
wave
gaga
##lmer
teddy
##160
トラックハック
せよ
611
##f2016
378
rp
##sha
rar
##あなたに
##きた
840
holiday
##ュー
373
074
##vg
##nos
##rail
gartner
gi
6p
##dium
kit
488
b3
eco
##ろう
20g
sean
##stone
autocad
nu
##np
f16
write
029
m5
##ias
images
atp
##dk
fsm
504
1350
ve
52kb
##xxx
##のに
##cake
414
unit
lim
ru
1v
##ification
published
angela
16g
analytics
ak
##ｑ
##nel
gmt
##icon
again
##₂
##bby
ios11
445
かこさいます
waze
いてす
##ハ
9985
##ust
##ティー
framework
##007
iptv
delete
52sykb
cl
wwdc
027
30cm
##fw
##ての
1389
##xon
brandt
##ses
##dragon
tc
vetements
anne
monte
modern
official
##へて
##ere
##nne
##oud
もちろん
５０
etnews
##a2
##graphy
421
863
##ちゃん
444
##rtex
##てお
l2
##gma
mount
ccd
たと
archive
morning
tan
ddos
e7
##ホ
day4
##ウ
gis
453
its
495
factory
bruce
pg
##ito
ってくたさい
guest
cdma
##lling
536
n3
しかし
3～4
mega
eyes
ro
１３
women
dac
church
##jun
singapore
##facebook
6991
starbucks
##tos
##stin
##shine
zen
##mu
tina
20℃
1893
##たけて
503
465
request
##gence
qt
##っ
1886
347
363
q7
##zzi
diary
##tore
409
##ead
468
cst
##osa
canada
agent
va
##jiang
##ちは
##ーク
##lam
sg
##nix
##sday
##よって
g6
##master
bing
##zl
charlie
１６
8mm
nb40
##ーン
thai
##ルフ
ln284ct
##itz
##2f
bonnie
##food
##lent
originals
##stro
##lts
418
∟∣
##bscribe
children
ntd
yesstyle
##かも
hmv
##tment
d5
2cm
arts
sms
##pn
##я
##いい
topios9
539
lifestyle
virtual
##ague
xz
##deo
muji
024
unt
##nnis
##ᅩ
faq1
1884
396
##ette
fly
64㎡
はしめまして
441
curry
##pop
のこ
release
##←
##◆◆
##cast
073
ありな
500ml
##ews
5c
##stle
ios7
##ima
787
dog
lenovo
##r4
roger
013
cbs
vornado
100m
417
##desk
##クok
##ald
1867
9595
2900
##van
oil
##ｘ
some
break
common
##jy
##lines
g7
twice
419
ella
nano
belle
にこ
##mes
##self
##note
jb
##ことかてきます
benz
##との
##ova
451
save
##wing
##ますのて
kai
りは
##hua
##rect
rainer
##unge
448
##0m
adsl
##かな
guestname
##uma
##kins
##zu
tokichoi
##price
county
##med
##mus
rmk
391
address
vm
えて
openload
##group
##hin
##iginal
amg
urban
##oz
jobs
emi
##public
beautiful
##sch
album
##dden
##bell
jerry
works
hostel
miller
##drive
##rmin
##１０
376
boot
828
##370
##fx
##cm～
1885
##nome
##ctionary
##oman
##lish
##cr
##hm
433
##how
432
francis
xi
c919
b5
evernote
##uc
vga
##3000
coupe
##urg
##cca
##uality
019
6g
れる
multi
##また
##ett
em
hey
##ani
##tax
##rma
inside
than
740
leonnhurt
##jin
ict
れた
bird
notes
200mm
くの
##dical
##lli
result
442
iu
ee
438
smap
gopro
##last
yin
pure
998
32g
けた
5kg
##dan
##rame
mama
##oot
bean
marketing
##hur
2l
bella
sync
xuite
##ground
515
discuz
##getrelax
##ince
##bay
##5s
cj
##イス
gmat
apt
##pass
jing
##rix
c4
rich
##とても
niusnews
##ello
bag
770
##eting
##mobile
１８
culture
015
##のてすか
377
1020
area
##ience
616
details
gp
universal
silver
dit
はお
private
ddd
u11
kanshu
##ified
fung
##nny
dx
##520
tai
475
023
##fr
##lean
3s
##pin
429
##rin
25000
ly
rick
##bility
usb3
banner
##baru
##gion
metal
dt
vdf
1871
karl
qualcomm
bear
1010
oldid
ian
jo
##tors
population
##ernel
1882
mmorpg
##mv
##bike
603
##©
ww
friend
##ager
exhibition
##del
##pods
fpx
structure
##free
##tings
kl
##rley
##copyright
##mma
california
3400
orange
yoga
4l
canmake
honey
##anda
##コメント
595
nikkie
##ルハイト
dhl
publishing
##mall
##gnet
20cm
513
##クセス
##┅
e88
970
##dog
fishbase
##!
##"
###
##$
##%
##&
##'
##(
##)
##*
##+
##,
##-
##.
##/
##:
##;
##<
##=
##>
##?
##@
##[
##\
##]
##^
##_
##{
##|
##}
##~
##£
##¤
##¥
##§
##«
##±
##³
##µ
##·
##¹
##º
##»
##¼
##ß
##æ
##÷
##ø
##đ
##ŋ
##ɔ
##ə
##ɡ
##ʰ
##ˇ
##ˈ
##ˊ
##ˋ
##ˍ
##ː
##˙
##˚
##ˢ
##α
##β
##γ
##δ
##ε
##η
##θ
##ι
##κ
##λ
##μ
##ν
##ο
##π
##ρ
##ς
##σ
##τ
##υ
##φ
##χ
##ψ
##б
##в
##г
##д
##е
##ж
##з
##к
##л
##м
##н
##о
##п
##р
##с
##т
##у
##ф
##х
##ц
##ч
##ш
##ы
##ь
##і
##ا
##ب
##ة
##ت
##د
##ر
##س
##ع
##ل
##م
##ن
##ه
##و
##ي
##۩
##ก
##ง
##น
##ม
##ย
##ร
##อ
##า
##เ
##๑
##་
##ღ
##ᄀ
##ᄁ
##ᄂ
##ᄃ
##ᄅ
##ᄆ
##ᄇ
##ᄈ
##ᄉ
##ᄋ
##ᄌ
##ᄎ
##ᄏ
##ᄐ
##ᄑ
##ᄒ
##ᅢ
##ᅣ
##ᅥ
##ᅦ
##ᅧ
##ᅨ
##ᅪ
##ᅬ
##ᅭ
##ᅮ
##ᅯ
##ᅲ
##ᅳ
##ᅴ
##ᆷ
##ᆸ
##ᆺ
##ᆻ
##ᗜ
##ᵃ
##ᵉ
##ᵍ
##ᵏ
##ᵐ
##ᵒ
##ᵘ
##‖
##„
##†
##•
##‥
##‧
## 
##‰
##′
##″
##‹
##›
##※
##‿
##⁄
##ⁱ
##⁺
##ⁿ
##₁
##₃
##₄
##€
##№
##ⅰ
##ⅱ
##ⅲ
##ⅳ
##ⅴ
##↔
##↗
##↘
##⇒
##∀
##−
##∕
##∙
##√
##∞
##∟
##∠
##∣
##∩
##∮
##∶
##∼
##∽
##≈
##≒
##≡
##≤
##≥
##≦
##≧
##≪
##≫
##⊙
##⋅
##⋈
##⋯
##⌒
##①
##②
##③
##④
##⑤
##⑥
##⑦
##⑧
##⑨
##⑩
##⑴
##⑵
##⑶
##⑷
##⑸
##⒈
##⒉
##⒊
##⒋
##ⓒ
##ⓔ
##ⓘ
##━
##┃
##┆
##┊
##┌
##└
##├
##┣
##═
##║
##╚
##╞
##╠
##╭
##╮
##╯
##╰
##╱
##╳
##▂
##▃
##▅
##▇
##▉
##▋
##▌
##▍
##▎
##□
##▪
##▫
##▬
##△
##▶
##►
##▽
##◇
##◕
##◠
##◢
##◤
##☀
##☕
##☞
##☺
##☼
##♀
##♂
##♠
##♡
##♣
##♦
##♫
##♬
##✈
##✔
##✕
##✖
##✦
##✨
##✪
##✰
##✿
##❀
##➜
##➤
##⦿
##、
##。
##〃
##々
##〇
##〈
##〉
##《
##》
##「
##」
##『
##』
##【
##】
##〓
##〔
##〕
##〖
##〗
##〜
##〝
##〞
##ぃ
##ぇ
##ぬ
##ふ
##ほ
##む
##ゃ
##ゅ
##ゆ
##ょ
##゜
##ゝ
##ァ
##ゥ
##エ
##ォ
##ケ
##サ
##セ
##ソ
##ッ
##ニ
##ヌ
##ネ
##ノ
##ヘ
##モ
##ャ
##ヤ
##ュ
##ユ
##ョ
##ヨ
##ワ
##ヲ
##・
##ヽ
##ㄅ
##ㄆ
##ㄇ
##ㄉ
##ㄋ
##ㄌ
##ㄍ
##ㄎ
##ㄏ
##ㄒ
##ㄚ
##ㄛ
##ㄞ
##ㄟ
##ㄢ
##ㄤ
##ㄥ
##ㄧ
##ㄨ
##ㆍ
##㈦
##㊣
锛
纴
銆
殑
镄
浠
屽
鍙
澶
杩
鏄
钬
竴
鍏
屼
屾
鍦
槸
钖
𫔄
瀹
鎴
笉
镞
勫
湪
岃
𨱒
傛
鍗
湁
粬
镓
鐢
勬
缁
嶅
佸
鏂
浼
锷
鍑
兘
滃
鍐
傗
夊
嗗
𫓺
箣
镊
傝
笂
熷
瀵
潵
嶆
椤
勪
闱
篃
勭
埌
欎
绉
𬭼
𨱍
鐜
鑳
勮
岄
綘
埚
戝
娌
鏁
闂
氩
佹
𡺃
庡
彨
閮
镙
鿔
熸
搴
嬫
傜
戜
滀
阃
鍜
婂
椂
嚭
嗕
潃
湴
拰
嬩
佷
铹
忓
镒
𣸣
偅
佺
褰
涚
瓙
鏋
涘
夋
姘
嚜
鍓
嗘
栦
纻
缑
庢
鏀
庝
闄
呭
犲
楀
栧
戠
浗
夌
笅
滆
愬
𪲔
嬬
犱
敚
𫟄
劧
栫
𨰾
𣱝
斿
熶
噷
鍖
𫮃
勯
湅
佽
绗
炲
鐭
悗
堟
熺
嬶
嗭
婃
阒
鎺
樻
犳
忔
㡎
墍
傞
揿
濈
鍝
镟
簨
𬣳
湡
簬
叾
皬
紒
呮
棰
堜
楁
熻
鏅
嗙
氱
绂
兂
濓
愪
戣
洿
犵
柟
曞
囨
绁
庣
絾
呯
渶
敤
彂
婄
璺
箞
嗐
煡
夎
綔
堢
濊
呬
濅
琚
鑻
粡
棤
𪴙
皵
硶
剰
鐞
绠
簲
鐣
姏
闅
忎
栨
梾
撴
緢
洜
鑸
闀
皯
嬮
紑
绌
忚
笁
悓
勶
婅
囩
忕
侀
缃
愭
粠
锘
垎
湰
攵
囦
笌
槑
鐖
冧
鍧
栬
𫔔
庤
儏
撶
棩
槠
涜
紶
粰
棿
簺
旀
疄
崄
犺
滈
旇
愮
炴
镩
冩
庯
堣
粈
浉
岋
姩
婏
斺
吇
牱
繘
欙
皢
𨱔
帇
悊
掑
嶉
楃
垬
堬
叕
儴
妸
簩
镵
樼
钀
锽
夛
呰
咃
柉
瘽
枃
仛
㳡
勚
鍟
颎
墿
炵
熴
嬨
侢
嗛
衶
铏
夐
綍
绱
镫
涢
炰
嶏
洖
镆
畾
呖
瘆
斾
冭
壒
楋
濋
叏
佲
瑷
叆
哝
椫
侊
瓑
楄
洓
曟
暀
畠
庨
鑺
燂
灉
呴
偣
悜
寤
笖
愶
鐑
娈
婇
悕
劅
寲
鍎
叧
曚
笘
煶
𣗋
槦
撹
绋
熼
鎹
嚑
唴
堥
埄
垨
镢
敱
柊
啀
竷
晫
厛
愯
潪
墦
夈
阌
妫
阍
惉
暟
帴
畻
囷
屸
涳
鐤
掓
懡
缂
笢
弽
啐
噺
姞
噾
忥
厜
楅
悎
妗
嵈
畨
氶
浘
彉
珛
洰
埆
笣
栵
棬
炶
濞
竻
䦅
溂
粖
湀
粨
彛
鍕
笀
忛
瑧
掔
婠
繀
瘑
偤
绐
愰
綅
彁
儚
宀
鍞
冮
眰
傦
笟
鎱
畬
嵆
搧
曪
冿
囬
嫢
栭
湜
厓
箓
姳
棌
屻
掍
媺
斁
毦
妯
悆
玦
𦶟
嚅
𦈋
粺
瓟
鎽
掕
㴋
閰
惂
呫
嗫
龇
粦
箮
寔
滐
悇
𨱌
牸
鐚
犻
𪽈
憳
愠
湇
旓
禩
硷
粍
憿
娿
氥
蘅
寚
瘝
箟
垯
皝
狅
撱
煄
湭
嫳
伀
迳
旈
颀
崡
秺
櫒
栌
倨
橀
𣲘
柤
祫
叺
祦
悰
晠
熀
镦
忋
䌷
叚
伅
憡
彇
瓧
敾
戙
喅
窡
懆
愩
鍢
搷
彶
尯
悧
镋
噘
浈
瓨
𣨼
姤
潗
烇
訾
暣
殗
冦
仈
埍
繛
敮
敹
囥
溿
姛
郗
堛
挶
瘯
楗
緳
鎾
趄
挜
崐
埛
辎
掞
芠
惤
樋
櫄
侪
趔
潈
鍌
竾
槗
叓
嫭
螭
垰
濉
恹
亣
铳
掼
簤
曢
敼
滠
簻
繍
粎
彜
簯
魑
嫃
棭
伒
秷
椼
筜
晢
鍨
垝
紩
埧
繎
簳
寘
卺
叿
𪾢
嬁
睚
洟
嵁
枩
樉
姟
犮
敋
殚
埢
鸷
鍣
劯
镎
𫟆
泦
粷
箙
鎼
叞
柇
椴
粯
娍
哊
彾
栥
枟
曘
𣐤
粛
鐬
笇
𪺷
杽
牬
𪸩
暍
喌
诮
彟
韫
嫨
珶
箰
荑
垏
櫎
婳
禟
翕
瞾
珷
崈
嫤
崕
帹
楦
墽
妧
槾
崟
钘
庛
咝
勨
闁
伃
旸
窣
偛
褛
檲
崱
镡
儹
眳
紦
瑭
珯
姇
𬀩
灚
绺
緵
箬
纥
拏
绨
褴
轸
摢
敊
弬
韪
氅
墤
垱
眬
赍
窞
𤾀
叴
棦
欤
噫
櫌
𦈉
斻
璩
粏
姮
彴
洌
颙
厷
馊
偍
弻
飏
𤦀
苾
祹
笄
𠰷
窸
㖞
殕
弸
嵎
啿
姽
郃
圹
嫆
皧
礽
皥
爣
𬤇
紭
𠋆
亹
邙
惁
粓
魈
诳
魉
汜
椝
檽
儨
髙
齑
剼
伓
榧
瘨
妭
搱
垪
炪
沩
埯
猊
螓
櫘
嵃
彸
偗
魃
嗵
犟
笎
秴
倝
蒯
阗
诌
嗥
巼
紨
晥
仠
鐡
宄
铔
獙
暎
崏
泭
缌
缍
鐟
瘔
笓
瀷
怞
洺
帿
幏
𦈐
啋
崲
檷
粐
亴
粌
𥬠
儗
毐
绲
帺
櫙
寜
眽
睘
槊
帉
枒
杌
殄
攼
晳
闩
姵
哕
摝
湶
璘
潻
挓
潬
酆
埞
櫤
厖
碜
逡
喑
睺
姢
摱
瘎
掋
嗏
潎
崌
疂
竵
棝
杲
莜
莳
𪵑
啘
礌
睙
窇
箖
瘜
钃
懗
礊
澘
帏
鑶
廪
尰
湥
懠
惀
柦
酡
儳
袕
仼
鸩
瓥
儫
爞
贽
枡
瀯
崼
逺
潏
鐕
厔
婼
伩
埜
茕
俦
胪
惔
偂
椈
潫
洊
锃
彮
媴
檺
隗
檪
呶
跶
帓
亶
潥
嚒
剦
撺
礋
惛
忸
囘
梼
悏
祴
綊
嘁
煟
抻
殛
礇
窛
憜
𣺼
嵂
怩
悫
皻
挋
燚
忾
葢
潅
俅
𦈑
曷
毚
埇
殣
瓩
辔
棫
墭
嵄
妁
枬
嗄
嫒
埅
蠲
疭
旒
檰
槬
诓
噰
樀
吀
阏
崃
炆
镔
晱
囵
簰
洦
敯
尓
瑨
紤
瓘
嚯
崰
緛
憞
煭
驽
姱
伆
戋
幆
夆
麹
雩
寖
鍡
浐
垽
誊
簭
浌
虗
谡
赀
哙
粙
忝
緧
壃
畤
薜
嫪
岿
狻
旯
闼
偊
鬻
敳
侩
尌
潖
缗
梺
豕
迨
皨
仵
㔉
牳
辂
嫾
傕
雠
荇
嬧
瘥
铻
徭
怄
繝
锝
纡
亓
曈
圌
恂
儜
仴
簵
嫱
矝
垁
掾
媪
皠
郓
黢
憍
噳
箻
镨
亸
潨
箪
俷
惃
逋
磱
溾
铚
龘
嫓
筮
湵
铖
儓
懔
偖
轱
吔
垙
硌
啛
诨
衽
𪲎
貉
姌
嫍
繊
疋
沄
蕖
浖
崠
棯
倓
潶
赉
逦
襦
啺
儊
跸
瀺
崚
矞
暚
埙
苌
畩
闳
眿
獥
凫
刖
偧
骓
恽
蘩
寷
钑
嵝
怿
潹
聩
钄
棴
暥
菑
茔
悭
崥
钅
璂
疁
禵
镝
紪
芶
犽
姄
惈
锜
儙
縿
洯
礉
垶
渿
渷
㐽
兕
粊
蜮
锎
暦
焹
懙
洏
洃
緫
蓠
箶
摬
晣
祼
豸
繜
檿
暒
鹗
蒺
瑢
怛
樘
嚩
骢
溇
愎
霳
泟
摥
洘
鄯
埓
娊
暩
讦
仐
柰
拊
葶
呔
畞
皣
箯
帔
缦
尗
讵
偢
蹰
锍
偁
珵
眇
樆
撯
崳
逑
籴
瘒
姭
伔
鐛
亗
箜
箹
奁
俒
姷
谵
嶷
芨
曩
缯
棷
幈
锸
杸
赟
緪
墝
澃
庘
吂
尪
帤
暅
寕
簥
櫡
瑐
敭
哜
拫
瞽
涒
𪣒
蝮
傧
砦
炩
剀
硦
氵
浛
虺
惓
亰
肜
棁
讣
彘
莼
潱
偐
媷
虘
枔
偦
戢
纛
炘
愔
庑
仺
𬮱
哓
缛
喾
灦
铦
螟
沨
侤
垗
伱
獞
竦
𬘘
弿
潡
缟
馐
烜
卝
𪲛
郇
钹
瀣
偓
锴
枈
夤
柧
煋
崯
玎
喁
瘹
珧
髭
牖
沔
婥
厱
蚺
郞
縼
𫚌
伥
穰
脔
鞫
泧
垐
蜉
亯
𫄴
厡
暻
欌
犴
腚
驺
剡
篾
梍
餍
逖
禐
曌
荜
嗞
陙
枊
鳈
孴
忉
荦
徆
嘬
䃅
姖
秾
瀽
箧
铓
陉
珰
嫊
鸱
娾
媱
狴
泤
獬
惣
枏
沆
彊
泅
缡
𫄛
踅
禇
偲
敇
圉
𡒄
洎
吙
郯
煍
繑
禆
礂
閷
狷
猢
禌
帙
湕
穑
磔
箤
渃
狲
薮
殏
憺
樗
矖
拻
棆
偀
轾
齹
罴
纮
鳏
椆
𪲮
慭
黼
尞
泲
𫄬
蒌
鲠
谖
悒
哞
粩
罅
黧
玕
悘
悙
砀
澂
瓠
籗
粜
皹
嫈
戗
瓱
歃
湎
萏
靑
竒
锨
嫙
獋
黩
胈
欹
墡
惎
犰
矊
詈
殧
爢
椠
彍
眹
翮
垓
簱
洴
劋
禳
褆
翾
嚡
唺
佾
鈶
緭
縻
祻
惌
叐
叜
葑
甑
躅
膂
桤
媗
粫
鼍
檶
盍
媵
浂
搲
荭
栊
厧
忊
懜
阄
挒
鬘
璠
偝
闿
猡
聃
蓐
懐
骮
珟
舢
栤
吘
兏
彺
邾
腠
樨
玧
旄
閯
趿
悡
彖
湉
狯
垔
埽
熜
姃
伈
阊
祔
椻
籓
玢
姴
禋
骖
巺
辚
沤
惞
尐
仯
嚂
竑
蹚
煿
泺
皾
彀
苴
癯
槄
鍂
踽
鄀
棔
貜
繄
櫉
唿
曽
𪾦
苿
玹
笩
紣
苼
莛
皳
疠
眮
崤
冣
枼
骘
厯
洇
樷
眻
黥
笗
寽
畋
𪭢
跂
粶
棽
缳
芗
叅
笳
歔
螫
翀
眴
浞
櫔
篌
嫄
殩
彵
糨
飧
倕
踯
瘈
邴
铧
粴
蚋
颏
瀭
笍
磥
巶
舄
猱
磭
嚖
笜
狍
擤
鲧
挰
潠
幉
湹
壂
鹬
觌
犼
蜞
棨
瘕
瘗
厑
瑱
嫇
矧
荩
曗
瓭
唨
柀
𫄱
洠
俶
爜
诂
煕
馑
搦
𣶩
噣
锕
祧
螈
笥
倢
犫
珨
邠
湝
跗
憷
箷
硥
闗
怫
闟
埖
谮
裢
泚
鈼
婲
錾
椢
镬
椃
舁
徂
牚
诒
仾
謇
𠡠
烺
隰
奭
瘏
槒
爨
馷
橛
篦
摵
桫
孥
秹
崸
敜
珫
缵
湏
琤
悳
艄
嵖
鬈
唢
疴
睄
姠
渌
灛
蟊
苎
睆
髡
嫫
摭
缏
𢙓
簟
皊
憻
矬
啝
𪟝
笤
勰
唹
禘
瓌
礻
槅
矀
媤
鍪
棞
㱩
棻
栝
卲
骝
訇
垖
唵
弇
侔
褙
俌
蘖
鋆
椟
钲
蝰
㛀
渻
崘
廨
勍
晡
铘
繉
昝
鳯
冱
槰
搸
诜
姂
屣
亽
龃
鸶
屦
硾
亻
矆
儬
槢
褡
铫
睗
嬖
姈
獟
汵
尨
溦
矡
堞
蛉
觇
揾
隳
伨
灖
倥
毖
冴
皪
洐
罘
耜
眚
櫕
偄
槈
锠
寗
蓍
伡
蟸
愦
扃
鄜
𪢮
煴
赜
櫦
禔
泩
柗
翛
雱
髀
煁
燠
茆
淸
笾
嫟
摷
谰
裇
姎
穬
谳
溲
蝣
殳
旰
貊
帾
狝
𪪼
坻
挗
翥
撄
蘧
纟
劬
伣
穼
坩
儢
芑
镏
偪
悛
昃
閴
龉
洍
畽
礀
笡
枞
蚡
欷
搠
墧
泔
锒
棪
偆
秫
贶
谠
暾
埥
惖
媸
艽
杺
匏
憟
瘳
淝
臜
仦
乆
粭
缣
劙
眀
墷
筌
迓
裒
渑
崮
噿
诹
醢
獍
閸
𢽾
皦
岽
秼
壍
攱
捭
昐
杻
茍
峄
𤩽
灊
涴
栴
癁
笫
阼
圮
祽
祩
渀
騗
帻
遘
捀
逄
珗
郏
鲇
沚
蚨
爤
霂
锱
烝
祵
鲵
訫
洝
粔
噧
磴
畯
啹
藁
粝
犇
壄
瑺
垅
綒
侉
碂
劻
慊
厞
尮
鄣
郄
娖
倱
幷
铙
湑
卬
豨
熆
葙
靺
臽
翂
睃
煆
崋
鸀
拑
躔
粸
鬯
啁
鬲
猁
蛩
糁
黙
荛
笐
扆
仩
揵
髫
㑈
呉
筭
硸
𫖮
儦
碹
萚
岢
蜰
伧
猞
觚
倷
剢
鸮
殂
侞
喈
焓
殍
荅
觯
缶
𪫺
澔
忄
瘌
爿
啭
簋
拺
砜
觋
廛
扌
咴
溷
屙
搫
琝
嘏
湠
搢
慝
轺
萐
壌
洅
硠
屃
阋
弶
筫
螣
嫕
瘿
琯
跏
挄
嶯
缫
珽
鳐
曛
煵
砻
魆
暡
晧
坃
倴
魰
榇
锞
裣
杪
挦
裎
湣
𣘴
郾
篂
愀
剸
拶
厫
熳
跣
凊
捇
槀
榀
垍
呿
诔
禃
蚍
廑
缒
洑
飖
觜
绖
艨
秪
轛
暋
髑
寙
悷
奲
侂
枻
潳
艟
豳
掮
㺍
箼
柌
觽
洳
柂
旆
莟
笮
槆
讬
菰
燹
枆
儇
炤
澪
漑
鲽
偡
妺
祬
匦
毃
峣
珌
筽
孅
嚚
幛
崷
滹
餢
霪
槩
鹣
獡
媭
丅
汻
𫔴
辏
渼
褊
麈
薤
惢
亍
墛
儍
蟥
窳
湔
檠
龢
㧏
麤
胙
轳
蓊
楯
垆
谿
酹
坼
抺
湓
泙
厣
黾
綮
恊
岈
塠
偾
玘
煷
珝
蹁
饩
瘰
厗
郠
垷
镪
棐
赙
鲮
潐
悂
澏
昳
穻
埦
觪
椮
簜
襕
𫍽
洔
摤
摼
圝
邗
薷
暕
瀿
佉
洉
酽
铈
毝
崉
莨
渟
遄
絜
诖
槯
芟
憽
妶
猃
挅
娡
丄
轹
鏊
崹
窅
幞
嗌
𫖯
鲔
畺
梃
簝
鞨
镠
檑
獕
黻
圯
𫄨
衸
仌
癔
郿
眄
尃
絷
诎
唽
宻
謦
凖
枥
伛
籂
昪
挧
捊
墸
彯
皼
驩
嫮
枾
芰
兊
戆
淏
袆
𦰏
臌
柣
巯
厐
笕
瘬
枦
刳
柝
湢
悐
剻
敨
凼
昺
埒
儵
鈊
椐
湱
馡
𫛜
皞
妽
椇
澌
俣
悃
涫
袛
娂
劼
䌼
垑
皫
嫎
狁
陬
蛄
畛
枂
灟
秱
嫏
灜
逹
偟
儰
瑆
誐
瘵
厶
槺
懅
鲂
尢
菂
祤
汊
劎
搩
赑
郪
焐
炻
璈
枵
馘
邶
墏
檫
艏
牏
龁
洧
𫊸
偩
搮
尶
𦈕
𬙂
狃
趱
虓
秮
鞮
弢
敐
櫢
姡
蛓
鞞
淯
伋
烶
塍
衤
剚
湸
橓
硖
楱
珎
苈
悝
蚰
菹
伄
蒽
瘅
彳
浥
饧
阝
偨
篚
铍
黟
舡
蝾
怍
嫧
鞯
锗
挍
硁
唛
笸
槜
缬
罟
釆
罽
饫
牨
旛
俛
蓥
桴
媠
鉙
湒
庥
啅
敠
枠
虿
倮
簠
癃
圪
珜
厹
玚
罍
𠛅
𫄧
嫝
柽
袴
馕
眭
溘
酃
擐
𣽷
饣
炝
圗
嫠
蠃
疰
犭
骎
螅
桷
帢
攭
劸
嵛
崜
緂
瓪
劔
牁
笭
厼
湗
苠
倽
皲
埉
夲
瓉
渹
瓍
鋈
唡
拠
栘
钚
舲
柁
鸹
搰
煼
炟
牤
杝
綂
逰
邽
皤
笪
峞
𬞟
庋
鬬
榊
媶
爫
洫
扵
缊
孨
傈
倞
觔
刿
蕞
铱
憯
黪
璚
暠
刂
檹
堠
笧
妡
鄄
憼
纩
挸
婓
唻
玙
怃
芤
殝
𬸚
蓂
鼙
畚
龠
啽
玆
爡
铇
逭
簛
猓
浵
芄
䜣
逯
觧
蟮
崪
唎
筇
晻
裏
琸
牥
僣
涑
滏
澒
銇
踬
枧
柅
鯯
潌
掎
爮
矅
磼
汧
珹
噀
嵒
婐
厬
墺
崝
皡
讠
钽
裰
搳
螽
鹩
陴
晽
毳
檩
妱
𨱓
噵
帍
摦
僦
啙
敻
偬
祆
魐
甍
萆
埭
垲
迯
鴙
癹
抃
茑
拹
轵
勲
邉
霨
箳
娰
掊
𫖹
塻
壀
髌
鬴
觏
獓
抔
隹
瑳
禂
蝤
粢
𬘫
笶
斀
敉
禤
瑊
榾
硭
畎
悮
丵
琀
鲋
伜
蔹
敔
𢫬
羼
蛞
袷
圊
睳
呡
蛸
砆
腧
僰
噭
酤
惐
敩
郛
睉
鹾
邡
嵏
醅
洢
儞
垉
灇
倧
棼
翚
潾
㧰
髃
玡
唅
茀
唫
绤
骀
尳
椀
饔
煰
吿
鹚
淂
艿
浍
鳜
骃
姀
捈
櫖
璆
螾
刭
焺
欻
嫯
摅
鸬
枨
舻
柙
羙
遹
牂
肫
鲎
垾
翙
捝
倅
疀
囯
菔
罱
摠
珦
洂
缧
廋
郕
瞀
圕
槙
谝
垟
鸰
廆
嬄
鹢
圫
泴
峁
谂
拤
鲥
颕
鞥
嗾
璮
殽
婰
嚫
矋
颃
秕
舣
弮
嚱
莙
仚
槚
顸
䙓
𬘭
圡
埈
𦈝
洣
螛
僜
沬
镧
獌
𬭚
俵
婞
硿
弨
踣
晼
亊
洬
哚
廒
鹓
攨
蚬
瀮
摽
閳
縠
髁
偔
捦
牭
籥
湻
嚰
仡
仒
憰
飐
莩
罥
嘡
狳
昰
泹
𫄸
矏
晙
窭
忭
狺
劢
詟
骟
爼
糼
硚
傒
猰
溽
坌
跬
湲
𬺈
泐
甠
棥
𫖳
蝓
跞
嫽
箘
阯
鹆
喕
鳟
祓
嫀
羝
觳
亖
閟
煃
嗉
孓
狨
膤
沴
挬
摎
禒
龆
憙
颟
猺
嗻
偺
𪧀
卩
𦼖
筚
敁
苪
蹀
茛
卐
阓
琋
蠓
骍
揎
帄
槝
夬
玊
惄
殪
玔
儠
擭
擝
垳
撙
姰
熯
歂
懚
瑵
叇
鹪
蓣
皭
寱
彚
俆
晸
籀
羑
崞
灂
噕
蔌
菉
拃
蔟
枌
疈
瓡
𬘩
罨
琻
轫
瘼
贳
紏
鞬
蛴
厍
麇
煹
裼
剨
屺
儧
偰
煳
栻
柈
汭
憠
嵉
芘
倰
埴
𪷽
釭
漭
葇
蛱
酺
窆
櫁
敥
鲭
穮
鈭
攽
妏
兓
幒
烻
韹
邖
辋
捯
緺
詋
笊
泖
踈
坫
悈
栲
餋
笝
瀻
劓
挴
椔
韂
纎
呒
铗
巉
煯
蝥
稕
訚
鹡
褢
峩
貐
甓
櫐
昸
偱
伷
瘚
拵
羕
硗
呙
硎
鹇
壝
賨
咰
姁
槪
揺
泬
瑸
櫋
飬
墎
衎
茈
巂
刬
尛
挘
𫖶
筟
鉏
宍
禊
崦
牾
葸
燫
蜣
闶
挀
铊
榎
偙
珄
磤
衁
澊
艌
熘
𬣞
袢
躐
冁
蒇
篼
黹
浕
檧
瘐
嶝
蚧
祏
磵
毌
尥
粂
塄
摛
穸
搼
琙
瑑
擿
蠖
殜
跽
襞
琎
挼
𫆏
蘗
苐
龀
溆
檚
酲
殦
𫂃
𫏋
髹
爌
岵
儱
雫
煝
弲
婻
銐
殠
珘
萑
輣
禉
咥
攮
偭
軓
蚶
摉
聍
挃
矕
櫣
鼯
侫
嵅
甃
勔
喗
椊
丌
澣
堔
僛
槉
圢
圔
嵴
昚
鹁
霙
帟
锊
硣
埝
毞
瞢
懃
虮
摡
糈
堋
胼
伹
媹
鬽
磻
旉
桄
頞
錧
瓎
唦
嚬
窬
獚
滉
吣
澋
祅
骕
颋
蜩
剟
蜽
棳
挷
纼
舳
镚
禑
閺
硻
灎
嚗
𪩘
燋
汋
獯
淰
湐
楙
牻
揲
埏
暤
蠊
迕
爩
窐
劖
藌
蕥
倯
钭
棑
盻
枹
郐
壖
缋
喡
尣
踔
煻
庀
瘷
奷
啍
燨
髼
芏
峮
籣
箨
暃
陔
偼
棅
嚪
碃
皘
鼗
梽
楛
圥
煚
禫
黉
挐
壸
暏
醤
恖
唣
磪
臑
帡
葅
柆
矤
嵓
矸
傉
榼
蹓
亃
溄
𫐌
屮
畣
櫆
蒪
鳎
卣
犨
栳
焄
噍
砬
垕
竫
挌
揠
駇
梴
沇
葕
睒
冖
绹
辶
艉
僇
笚
衏
檒
觖
欬
酎
埮
吅
獑
肊
穵
糌
襻
榌
艶
瓖
砉
盩
劂
懓
赆
殌
攧
鸫
伲
獴
晹
瀴
蠎
橦
痦
鄠
灔
唶
磙
櫀
鹍
濩
祮
谞
洡
偒
戥
燏
鳔
崅
窫
厵
圠
珔
谇
舯
帒
鈻
稌
箦
魋
赇
棓
墁
𪱷
苤
啂
蚐
皽
飔
嬲
裉
蟢
孞
淓
瑎
紴
敟
傪
讙
𬩽
徤
彋
髞
茌
箾
銉
朓
帠
岜
鞴
娬
嚘
茳
閦
傤
觺
孉
疬
狌
螵
暙
𣏢
鈫
渫
𬘡
蔪
媃
捽
湌
嗍
渖
洈
滺
嶪
耧
繌
䇲
暼
幵
耎
尩
莸
礅
擗
𫓰
坢
烱
忮
竼
祲
筦
枘
铒
蠧
嫛
芉
埘
珚
晅
忞
碔
諌
跦
逓
悥
殎
鄗
鼽
嗢
憭
軴
镈
矟
俢
銎
泶
毹
罾
璪
茇
抇
耔
杙
呣
剞
彣
皶
崊
窎
𪻺
濙
斲
蝻
氍
垘
眵
摲
圱
𬱟
嶲
劘
墼
脬
跐
姺
墫
坰
喓
衒
樇
朅
啯
𬭎
癳
鞶
帵
摖
昫
驲
燝
渧
岣
絿
𫏆
嚢
缞
摕
舨
儤
𫔎
媜
枤
蘏
垤
褀
𫓬
疌
枑
貎
躞
𬬮
鼔
焎
蚑
飮
耪
酾
躄
褟
鹙
唼
矠
迆
醵
蒴
俍
畈
拞
姯
詧
磰
獝
挻
牑
嵚
淭
蛲
歘
簴
蕺
抰
茐
𫞠
瓀
甡
𬴊
瀼
斝
洀
髟
侽
磩
箥
朘
揜
刲
冡
瞍
疃
箅
钕
昢
痚
槖
菪
廙
锓
鲳
砮
蘍
乇
鲊
馓
嵫
俜
柕
矻
砩
圚
玬
蔛
帨
圙
朏
緁
垧
矘
筥
墥
窀
胗
焞
𫟹
觫
垸
萳
鹖
筅
翜
湩
蚹
襜
锾
燐
捃
锳
侁
縢
翃
庳
媟
獏
蚿
趍
琭
烔
夂
獦
𬴂
睅
玞
桕
琞
尵
蛏
羮
澥
毵
賍
迾
摚
孲
刢
聱
懕
諠
秬
姼
觍
翯
柋
枲
茺
凃
锔
诼
瑬
敫
癀
憪
泆
檼
慬
蚴
鸲
槷
憝
仳
稒
湷
乕
阛
磶
悁
跫
垌
槔
镮
橍
钪
酴
媥
瓫
絑
鲖
芴
軰
礠
氇
筿
𫓧
塴
伮
岺
扠
佴
鲙
挳
瓿
僳
惝
汮
玗
浤
暰
穉
儽
鲆
氆
锩
𫔍
錱
㛤
飑
墐
稛
嚊
偞
蕅
蟐
萜
哢
蜎
迮
槞
裈
唲
猸
骙
悾
酂
恧
篥
妜
婗
惵
旼
皃
姕
昽
煈
薡
刋
勗
隭
呑
瞆
钫
𬸦
慛
簏
剺
昤
赗
璭
埶
宼
漻
虡
懁
苖
肸
暭
伾
闬
㑩
偠
沵
𠇹
啇
𫘧
仧
髎
蒉
莂
爝
奀
蓩
駮
摙
𪩷
砙
湬
埑
垹
㧑
舃
挢
灮
硪
阽
苸
铯
硴
弰
袇
啒
獜
蓹
愺
硩
裪
锶
瘣
眏
剠
氿
韣
丂
湨
氽
溌
涬
孊
楶
柾
蕡
媖
笱
愼
筼
瑝
棙
骒
蚠
嵕
𫄥
昻
帱
毄
霅
枖
蕰
铟
裻
匄
痳
鬏
朊
瓗
喍
𬬻
糇
祰
肭
戽
伂
樛
乬
锬
孧
窔
蔀
牷
祄
旳
诇
辀
槴
砑
丱
朾
虁
醑
聨
卂
朣
灪
睈
锼
奡
絽
鹯
缲
嗺
獳
偮
𫄢
蓰
幪
飡
渰
胂
鞒
蕣
玨
阘
裥
诐
宑
懽
卨
鼒
娭
蟛
拕
塽
鲞
漼
凕
艸
媄
恝
鴂
粞
翧
𬇙
舴
爴
毤
䓕
咈
霫
湽
熇
鹔
珖
餬
辒
𫘤
趑
骺
萫
𫐄
䌸
罣
刄
黡
筃
蠼
鴵
侻
潲
莣
羖
咵
圬
蛑
漶
脶
曺
谫
滳
𬯎
慥
婍
覀
鲅
蘂
眊
傫
搛
喨
暓
臞
鄫
𪉈
掯
倠
肀
桖
𫗵
趯
犂
埀
龂
凨
鹴
洚
帎
佧
𦈌
臁
俼
潽
蔸
浡
甆
悺
丒
懢
嫥
廸
篯
夗
顕
嫞
獉
虀
珒
崾
煫
珤
眘
坭
杚
茓
汔
襌
𫏐
鳊
廾
螬
葰
爀
沕
烀
瑥
蕗
祳
齆
瀍
镃
𫓽
袼
岧
瑫
峫
𫈟
髣
攴
韕
憌
硙
濵
楖
钍
蜺
轘
璥
慜
𫷷
瓞
孭
儩
襚
窋
艚
酞
柷
汍
茝
雝
袓
櫑
𥆧
圵
峘
皛
孒
淎
憵
挏
𫓯
裀
慱
疍
坈
侘
愒
睔
翣
嫅
櫜
蟪
羍
𫄙
鸺
椯
憘
塁
赒
斵
裛
肼
鐾
焠
痖
泿
馂
拸
噏
玭
扥
鸔
宬
徯
贌
耤
梿
莰
筣
尜
𤞃
垴
乿
𫇭
幰
裯
瘛
㱮
髠
驵
騈
咍
乽
趼
睌
衪
絻
喒
鲼
醡
垞
槱
鳣
廌
𫄠
氚
捥
寍
祊
煣
褝
嫜
湆
邅
汏
鲰
惗
褁
淾
栱
啔
幁
鼷
盁
灲
敀
濪
𬱖
䅟
骱
陁
迍
倳
凉
咺
麿
唃
崓
匚
歜
𫗴
虵
暵
鹨
鞲
膲
鼢
郈
穅
淠
懄
哠
泒
瑔
恓
肷
徛
缾
丆
謟
溍
鄏
鞜
睶
柃
娸
豞
晈
巸
颿
麕
睵
爟
埁
呾
茤
仂
碡
崒
瑂
墬
瑘
楉
堎
嫹
娀
矐
坱
璹
砟
锖
朒
颣
淢
𡋤
荌
箢
挮
鞕
旐
皕
僎
恇
曱
嚄
眛
纒
蓺
奫
烲
鬡
圷
珃
岓
𤞤
髽
巇
桵
娋
惙
偘
搿
莃
恱
祾
誵
琠
澛
搻
赪
炱
蹐
葻
稂
濳
褕
𫄰
楢
罝
朩
稊
暛
殬
卭
瘊
芣
𫟡
𫍯
慓
兟
泇
鋋
攺
倗
䓨
荍
玱
棜
唪
岍
腘
膴
垡
塙
殟
媣
挆
鹠
𫘨
硇
鞔
筢
𬨎
淐
傟
吢
艴
轝
牼
睱
哱
熁
脞
陼
緌
捒
𫗧
洤
殔
丬
讟
娐
鳢
穞
暆
焮
禖
虖
瓬
憉
薿
餙
晊
晬
縦
澉
錬
枺
虼
髆
䶮
僩
枽
咹
鄮
煠
踧
爚
歠
洨
骉
楩
𫄟
痃
𪎊
瞵
镴
徏
氘
杅
獔
覰
輴
褋
黓
冝
扽
緾
晲
蒱
朿
痩
鹛
袠
琓
𫛭
棃
甿
綗
昩
矦
鲡
鑢
驈
蕬
𩽼
忬
檨
肟
鑜
柍
杬
窉
撘
煺
崿
挭
祪
璲
鑨
湺
扺
柸
漈
锇
邘
弝
踒
禥
湈
敡
嶓
毑
疢
爅
躜
抆
钌
悹
礞
𦈡
胬
竗
頥
亼
潩
伌
氺
吲
𨱎
竮
楪
𫗪
敪
鈤
苘
嶒
玼
薫
仱
佖
僬
曵
泜
墴
𫗦
刓
慇
啴
蓳
凵
啈
庒
𫛸
歋
垇
鳇
僗
鍿
狖
曀
箑
笯
鸸
奓
偹
髴
圛
禨
繗
莾
掭
䓖
鲪
禈
孡
𪎌
鷃
胨
齤
筸
傔
砘
朂
鞹
铋
鬛
頬
胲
铌
穏
箎
檝
聣
𪾸
羃
猋
忺
顚
瞮
斳
悢
淽
𧏗
铪
坧
韡
霤
穱
哿
矰
鲝
彡
焌
痏
滪
馇
熦
搊
泂
摗
厺
㭴
朠
洕
儖
觱
甏
鲣
襨
屷
釼
飗
垊
櫇
懧
坜
栐
缼
漷
媅
爯
舥
磮
藂
橏
劁
咢
弪
貤
槇
𬙊
宎
𬘬
雸
餝
塜
堦
碠
韘
澨
豦
鯈
玓
汷
䴔
賸
橚
澕
蚇
畊
抍
褎
瑡
沺
鮛
嫶
脰
梣
飂
𫄭
祃
荙
砢
蓏
镱
鲩
孍
隩
愘
鄚
炡
鵺
寯
锧
棸
藔
沷
璱
睂
㶉
勷
匧
檇
雊
儛
恟
惍
乣
莭
靣
髰
乄
銺
汣
蛘
籰
賖
檱
禴
僘
苊
黐
鄤
銕
鬂
仉
镲
圼
渇
𪥫
藞
畷
樰
莶
荄
婈
甪
軎
慿
鲐
黈
筎
旡
枓
樃
猇
羱
暲
蠋
嫼
魜
熛
咷
嶌
雓
漤
睖
榣
宲
憗
侭
貀
兀
頉
褾
鳆
玒
堧
怴
騩
𣓿
溙
沘
鳀
藳
慆
澼
憕
婫
叒
厎
癎
儥
癚
酏
殙
堉
猒
菻
萷
橒
麄
僢
碲
嵍
氎
猲
醭
狛
攉
胠
雚
砇
鏴
噑
瑮
梑
𫐐
虩
鸧
旴
癍
懮
墹
藟
黦
鄹
檈
鬿
䝙
骫
𪨗
鲦
猤
嬜
菼
絓
丏
砹
瑍
𩾇
甔
蹾
蟚
蜾
脤
㭎
絫
𥩟
膣
胔
琩
珳
旟
檛
匸
雘
牣
癿
𫎬
殱
淟
𫄷
祌
敽
糓
鴢
孯
傎
邲
峅
尫
鹥
灅
埪
豽
蟏
笻
琫
坆
脿
盺
濔
藋
蚖
敧
禠
蕋
螀
醨
醿
𦈛
麐
媮
汸
歊
玤
琣
坅
𬳶
螒
桞
肵
𫇴
溻
掹
羰
蠪
睟
宷
揦
淧
羇
禚
𡠟
裄
鎉
犅
噐
灺
璬
敿
圤
饹
穯
奾
窾
幊
菫
溁
紷
逌
鹱
遬
昡
钋
穣
埐
杮
膧
醌
𪹳
螚
嘒
搒
廱
饤
焣
畍
匋
晄
瘭
韐
孏
梕
咮
馃
醎
鞚
轕
麑
玃
搌
瓈
碏
秅
罭
爔
螗
軃
䌹
鰯
昞
隃
榍
锫
烒
坋
嚋
瞏
丳
趫
怹
崵
倻
躧
盬
怗
蕹
踡
𨱂
甗
蚃
薝
諕
棇
隲
膄
菶
僼
揔
骦
哷
枿
郎
惽
歍
厾
滱
睎
澝
恘
苶
佀
莬
𫕥
缐
匜
抂
挿
搋
桾
毟
沲
圴
胾
玴
娻
橷
尭
喤
痆
淲
俫
楘
珓
𬃊
涭
渕
琈
猀
鳙
镘
渄
鄾
钔
𫘝
窴
欰
粚
岪
邩
聀
奤
跼
蚥
棾
鲀
耰
侎
撀
俰
𩙪
鏣
瀌
裿
辿
罏
酳
鼌
麜
钇
棢
絼
𫐖
荈
艝
蹯
襈
怮
唗
歾
褵
箛
𤈶
刕
礲
僝
彏
牿
蘘
靸
淕
椓
矱
𫓶
盝
匽
乴
媏
眜
繤
矌
巟
刱
寉
鴓
坶
踺
鲻
厪
鸜
禜
霃
胩
軶
緕
硹
桊
耇
孠
辌
漙
摂
耂
痟
衘
榑
鄘
誗
贠
礓
翑
痵
侹
輂
侒
蜑
怊
蝽
噇
钶
鸻
郺
喛
𫉁
菝
陧
跘
𬀪
凮
淔
馦
薾
懝
瑹
麃
劥
暔
堨
熖
傺
埳
訷
廜
稥
犕
冫
卋
葎
罳
𩨀
鬷
楡
塈
籹
縡
嶤
睩
鴶
皒
皩
讱
𫐉
偳
莀
聄
𫚪
惒
箲
饄
芼
旽
簉
脀
籝
宆
誯
捴
𬪩
鹮
彑
滗
碞
摏
渏
罿
鱏
宧
芛
麀
𫜁
苳
豭
羪
椑
弡
媢
簼
耱
莮
鞈
嘫
趎
碦
臛
媉
讉
璄
帪
丗
戯
琁
薢
衖
筀
訬
觿
俙
廼
袀
桭
咶
侓
砽
𫚥
琡
醁
诪
廍
礿
鄐
磃
𫗥
𫛳
宭
爓
栒
毇
苢
竁
慞
哳
赕
舠
塖
踖
璒
鬐
屧
馌
晑
膥
浰
諎
汢
𫓴
帗
眢
俉
艼
嶰
嗮
脋
𬤝
聦
婤
鷇
漴
𢭏
鲿
熤
𫝫
踘
捖
寁
酅
橥
瑴
洭
夣
澓
衭
𣃁
躟
䴕
傃
鏮
镹
侲
躹
钸
滫
畐
亪
灴
璔
坉
獖
𫗠
坔
簶
肬
蟭
麞
耵
攅
痷
岊
𫘞
讃
獈
哴
宨
愱
嵡
秗
畟
淗
蒗
頺
鸤
欶
眍
弴
丠
鈩
𫞗
烕
箁
塡
倂
猽
滶
峃
搹
鑍
𬣙
踜
愊
𫖒
矒
踦
篴
絇
跧
罼
慠
𬟽
𫜪
脽
爕
矼
妠
锪
禼
豲
儑
碻
飝
𫭢
乢
塨
踆
搘
扄
遝
嗃
椌
鞪
尡
爳
瘶
弫
𫛛
牃
綕
埿
𢙐
邧
粻
猭
惸
艒
筰
捜
梡
攲
籇
凞
瘇
宔
黮
絭
袝
崣
狟
穟
巣
拪
褉
褃
瞹
袿
糒
燡
籖
獤
虒
𪞝
冂
耑
鳘
𫚉
襛
癦
髄
砫
瞷
盦
磝
砵
撢
颥
覠
巃
棎
祱
𪨷
韨
韎
砅
幖
欃
钐
曁
嚆
艎
昜
罓
囖
娵
腽
菥
拝
腯
唊
荺
疒
夼
䯄
聮
沝
𬤊
秏
檞
萒
丮
敄
稁
暞
嶛
凾
駹
荝
稆
逴
韇
坮
椉
軄
槣
邚
榒
瀁
汳
愗
鈜
僾
宐
椄
鬾
藧
愖
筘
舋
塐
耩
跱
竳
尦
瞫
譥
鬒
墚
𫓩
盷
絣
穜
椛
秔
媻
箵
嵑
椥
瑃
堍
𫘦
慉
鱍
峠
蛣
狤
𬳿
帲
暪
怤
岏
豗
胐
錍
筄
凷
簖
枅
釡
烋
鞻
娫
澴
鄷
𧏖
仭
𫛶
籧
倎
侰
黵
猘
匰
橸
崶
鹋
坙
弆
坒
褧
慂
謩
螐
鱩
琂
箚
梇
屇
𥮾
輀
蚚
綷
趐
聛
槥
鱬
釂
鲒
瀸
昑
恲
絘
𫞝
楧
𪢸
畭
鞓
抶
珸
兾
捔
樎
骲
褖
甽
筶
蹷
鶵
眫
𫖇
斮
叀
𫍙
稃
𪣆
筈
烮
𫍢
粋
嵸
朄
鏿
啩
覅
絔
欿
僽
塯
淜
糵
憴
燑
磉
堈
缷
𩾀
篨
嫐
詺
堩
恉
艔
𩙥
扢
蕍
橞
摴
炚
尀
盭
槡
冓
𫐈
齄
狶
癑
劐
皌
娯
阤
靇
沍
歁
㥪
棈
柶
𬬱
葜
畇
𬭸
悋
茞
籫
嘐
𫠆
倹
韺
黁
扤
甁
琹
杕
僴
鵽
罒
鲚
鈌
蘫
寪
啚
兪
饾
鏬
昖
珆
俧
抯
蜄
扐
轓
凬
涁
嵺
裵
踶
洷
牰
薶
犏
刞
悿
蘙
梩
踳
溵
弌
磈
讝
覻
霐
𫚋
昹
𪣻
𬘓
蜼
溓
裬
椕
蹡
鑐
敆
麛
疐
籒
胘
裩
淣
妦
餠
堌
梉
靁
軆
渆
𫔶
歅
玿
奣
圲
顠
愞
甒
𫍚
饸
牶
吥
徎
禬
擮
轒
墌
朚
菆
豋
劰
乀
礟
袗
蚏
橿
𫄶
蝲
陱
侾
珢
鵕
嵵
刅
牗
苺
駴
倛
頳
杇
铕
𫐑
虙
韾
鞡
鸴
胕
屝
妎
䁖
乧
盋
窊
鐻
莋
寣
薓
鬄
龒
荬
䉤
耹
摓
跕
酔
嘂
礧
渘
竡
憀
岨
芲
塼
乺
悑
僌
赩
蟺
羏
迒
剕
楻
匑
楳
踠
镥
旲
柮
疉
聫
鶑
巑
橑
汦
簕
𫞦
睷
坣
蟼
蝺
倵
裲
浟
溰
靷
劜
桻
镅
𬯀
𠆲
𫔇
淴
瑈
簄
鞗
戉
漦
炑
澖
鄍
卙
漋
韝
腨
醊
凧
僡
浲
坘
愓
邆
輱
𫸩
醾
𨀁
涊
趻
琌
鉨
旍
𠮶
漅
忼
窙
匫
瘃
熿
泑
伭
幨
噽
砶
恅
霗
抳
欳
艍
卌
铽
𨱅
酫
蟰
僶
頧
鹎
脒
祒
姧
硏
凚
漥
肻
膋
鎑
焻
蝘
欉
狉
蒀
躱
乪
欼
孈
縂
瑼
貥
嶦
蹍
澽
燵
塦
巛
痋
浱
顤
鵖
𫈉
勹
頋
愄
渮
丯
毱
瓲
滽
摰
肂
瓐
孷
梂
磳
荗
慒
柎
癊
靬
鯭
檃
椘
掤
覤
篅
掻
婌
煓
芅
棏
垺
灈
栟
籕
篲
𬍤
𫝭
奨
锿
璅
牜
剱
脡
抦
椸
楬
臿
竆
翿
朤
奯
糢
坥
颽
妢
琕
箿
𬸪
抴
溚
穄
煔
骻
鶏
笴
玏
薁
芺
釰
𫔈
坕
楒
墑
衜
梱
搃
裓
俇
辁
閖
庌
痄
騕
䴖
祶
覌
咾
漮
猚
炏
嶜
筨
痁
臇
泃
嶭
𢙏
屟
碊
幐
蘷
𪾣
𣍰
禶
哬
妉
蕛
膫
懛
䴙
鞳
礝
醽
抷
刌
蓱
偫
饎
妵
霡
霔
聢
巜
圎
焢
垥
斄
馻
岎
寈
喯
睓
麁
饛
猼
襮
骭
墣
孶
荶
痡
匂
嫷
蚳
煐
斈
橴
漰
刜
銟
筳
妌
荋
渂
崀
鍱
餂
炌
訿
铷
屴
旵
铑
梠
怲
𪻨
菐
𫍲
櫂
螋
坲
匊
柭
痌
騀
蝝
峳
橝
唝
壉
呁
籞
笒
歀
濣
趮
硛
痎
陯
鵹
猄
騒
嶿
丷
壏
彽
縌
谺
輹
晿
胵
灀
桬
焴
亠
哖
晜
饦
絒
峱
觕
焫
蠂
侸
眂
鄃
蹢
窽
礩
螑
簃
滍
萹
媕
擩
靿
孮
鎒
嚈
塀
蕏
忳
繲
溎
嫸
玝
跢
掫
沗
蔴
襢
鳓
媁
矃
楾
硡
怈
鳛
欱
揕
曕
苽
觛
伻
嚠
儶
鯥
飰
讻
慸
妅
曶
璷
滘
𬬩
丩
鏸
汼
祣
梀
佪
淍
蟟
蒄
墱
鬵
耠
歨
疪
傠
乭
熥
𨱄
嶵
桯
撖
毣
冋
怭
禝
嚞
笵
峈
𫞨
杋
礶
梮
肹
𫋷
緃
烆
搕
凂
菃
蟫
昷
嵥
焸
蛬
𫈵
澯
隺
篐
顖
狢
𩖖
廮
漐
揙
戤
嵲
跅
伖
棛
檘
籯
媊
泍
𢬍
辵
縖
醰
篈
梐
剭
橕
鑅
黚
脁
𫍸
峂
侳
歭
謷
薉
弐
焀
涏
訔
凘
瀀
𫰛
膰
憃
懴
𬊈
𩾌
淈
欴
歮
踼
墯
璑
馝
蛧
馎
坴
抅
岕
翋
箄
鬅
梌
紾
﨑
菳
袾
鼫
湦
靰
黅
盉
桲
浾
罙
朙
徢
詨
歈
螌
𢠁
簁
凓
蓇
𬶍
櫏
咇
眔
瞱
礜
蟞
狪
榠
遫
廤
揞
緖
懥
忷
茚
暬
嶡
穪
渁
𣲗
耓
鎁
茢
媐
暁
慁
喩
穋
肙
𫟵
蔲
掜
仫
廴
攃
鹒
齅
襶
𨱇
莵
吪
樕
霬
𡥧
嶱
曋
桼
柲
茷
𬸣
蛃
堾
沑
昈
𫓥
馺
謪
檍
坓
鵣
愃
蒢
婸
徺
蚢
烎
揝
僿
毥
旿
鴖
窌
汌
搄
剆
𦈔
樬
鲗
鸓
乻
莯
歺
焂
晵
霦
磎
橤
烾
醠
𪪞
侺
徍
拲
堲
萿
桽
甴
肰
椣
鼏
硍
坺
猹
眱
龖
乼
𪉍
忟
彐
朰
凥
糥
裃
镺
嶶
遆
裋
鶂
迵
袚
懖
猈
噂
貏
帊
筤
岾
碵
甹
帩
嵿
銙
摫
囮
虰
譛
𪧘
狜
峚
蔁
莔
摮
芔
恄
蛜
魖
岮
赮
禓
壷
鹐
𫶇
犋
巕
侼
慅
巙
怣
胻
汯
怓
鑁
嵮
踲
𬙋
沜
翏
勀
𬭤
玶
禙
哅
笲
萯
磞
慖
侱
霝
馉
舤
鉐
𪻐
蛡
揳
嶐
雮
朌
譺
塆
𫓪
楿
醄
禭
篬
𩭹
茖
梬
袨
𣚚
鄊
葽
僄
黤
儮
孹
眤
𫐘
頙
戺
瑏
縓
蔂
籦
纑
嶣
臡
䗖
巚
愐
嶻
氀
肣
蹽
厊
斨
廏
緉
恏
𫌨
亐
硞
槹
犠
騋
坖
庼
偯
鯺
墢
澑
橆
儃
掿
謜
磘
痗
磸
斉
𫊻
痓
蹅
舭
枙
凣
钆
螖
蚫
籾
夅
愳
乷
疧
趦
嶟
頖
瞚
铼
凅
軦
褷
琾
鬋
婑
娮
夡
杄
焇
檌
騛
躃
澟
袽
搙
仸
藨
𬴃
椦
雬
騺
靊
𫘩
𫚧
崨
嵪
燘
岰
漀
蓚
豝
宯
莚
桪
橅
螘
藇
鱓
呠
礵
捁
圂
燳
奜
蓎
嵀
臱
刟
葊
耴
圶
哃
狓
醳
秇
狫
囏
緅
聼
扙
俀
𣐕
攦
咜
帞
涷
縚
魗
塥
𪿫
蒩
莤
圸
廥
嘨
冘
痬
廇
佁
竤
鰰
毠
萓
穈
侴
痀
柹
芧
凟
眗
卄
弤
僔
羾
妰
蹎
韊
礤
郳
逷
檥
鏯
蟗
馜
恎
豮
焋
蓨
焽
饳
綩
嶬
坹
袊
籭
槏
痝
綶
叝
𬶮
栿
暜
扊
檦
斶
犆
羺
匼
哤
栆
慹
癝
巈
檓
挔
疨
胏
弣
鷶
蔱
妐
摌
𫄫
潝
靲
邤
臶
峕
蕸
焵
瓋
橖
軱
霶
屘
歒
廲
祍
嚤
𫉄
𫐕
魊
襥
鵙
僈
稶
糱
絋
稺
𫜲
蓶
珋
峉
焃
渓
塳
桚
坸
𫭟
峧
誧
梪
曮
娗
潓
刵
𦛨
蕶
葴
铞
閠
俈
渜
淊
囇
鮌
譪
麰
蕫
骹
堄
颒
疶
戭
碖
榰
弎
瑅
怚
倇
薲
稸
駌
鹟
愌
铴
扅
嘙
鶾
觷
僃
祋
蠰
𬊤
籈
峆
赨
箌
璛
筓
豖
輤
濴
鴭
衦
稙
柼
臲
挕
璍
阢
堽
硰
玈
餤
汱
桍
𫞡
瀜
愹
髲
哣
隥
桹
倃
橻
毪
歄
谽
覜
褍
𫛪
脭
蔾
醓
俤
蒈
劶
硵
嵣
慡
膵
幠
仜
梛
訉
嶕
紁
抎
郚
榙
籑
徔
渞
肳
扜
硂
諐
槵
汫
侜
稡
瞙
蟓
鸼
轃
僯
轪
暽
硽
軘
倄
愇
鼑
斒
蹱
冔
喣
恌
鲉
跔
咑
黇
筻
畃
髾
鲴
渱
醔
羬
忲
擥
刡
俹
褄
啌
蒦
玸
鄅
𫅗
鼩
櫩
訹
嵷
剶
廗
窹
耏
稑
荓
虣
罶
榗
𫍡
糩
漒
睊
龗
颴
驡
蒖
麏
骣
薖
蛁
狆
撗
鷋
嵨
澭
酦
斚
堁
𫘠
楴
宖
哵
鎎
鸆
媫
𫔂
霿
骔
鵻
鈚
𫞩
觨
碐
嵳
毾
橪
郹
巏
昿
琄
偸
庅
甤
𫛞
靮
昍
葀
髢
摍
僙
胊
樄
魌
嶩
嶫
榐
匃
椩
墈
杊
疕
齓
颩
肶
礚
筁
镤
癶
嚁
囄
毉
篊
𫍬
麌
朼
秿
劮
鬌
褠
捑
蟃
萠
溠
漃
豷
宱
漡
鄽
髳
衋
奟
潉
篟
傽
峺
杔
鲺
曃
軂
俴
蛶
荿
秠
奌
斠
鞄
滮
脢
萟
𫇛
迋
菙
僪
辬
嚿
鉼
刉
霺
齍
庂
𬣡
杍
渨
碶
鵔
恮
皀
膌
耢
甋
膖
纉
欯
駜
喭
荲
牪
燇
褱
諙
宒
昄
矂
擉
笰
烵
吷
墄
齉
𫚈
莝
汥
穾
嵙
籨
荁
圦
刣
廽
茻
菋
茽
睕
姅
蒫
檖
鄡
胮
樝
徥
訸
𣒌
戅
襳
荂
蔢
𫋌
苨
愢
鲕
虍
坬
攁
卼
揈
敶
稖
渒
吜
菒
蕯
漘
歕
郍
腄
𫄳
貋
罻
硧
膪
磜
涥
塉
稯
猧
朲
渽
𥐻
夽
凔
僋
逽
蕐
恈
輵
燸
瀡
艀
礛
耼
蝡
譕
鞟
媔
蔆
殹
罫
溕
沎
嗈
檙
衵
瓃
堮
菛
蒷
翵
裞
篹
毼
硳
蒾
稄
苬
砯
鋀
曒
頄
癙
袯
麅
茪
涐
匨
袮
僆
爠
蝍
萗
狑
窱
瀓
袥
炥
涍
耉
㭤
羛
葁
恑
朸
錵
奵
韔
哰
茙
𣗊
乚
欂
鞿
陊
眕
幎
蠵
黺
乸
燗
懱
癕
腒
蹜
鎫
𪡏
灨
迡
宊
竏
邟
栔
𦈎
哫
埱
蹛
熞
嶥
蠚
騘
鳁
硉
抩
跾
鼛
歏
鸁
飇
瀫
橾
絖
钷
忯
匬
刐
𫠋
釱
縆
辴
涶
赽
垀
鷪
貣
橧
簙
傂
𫚖
粣
駬
峎
滼
榝
凩
讇
艅
梫
藛
迗
栚
郙
碨
廭
媌
陑
蓞
碥
霮
墕
濦
蝃
庲
柨
櫽
漽
垈
跓
腶
舓
袑
𫛩
齝
峿
楰
岶
栂
諆
曧
魭
禸
怺
幋
盰
鵸
藫
馿
岯
澚
懘
珇
祙
杗
𫠁
秙
櫰
馠
髤
骴
𩽾
觭
忹
樏
稘
跲
𬂩
蛨
獆
怋
璙
牮
𫜬
牊
廘
檡
韥
襒
艧
髝
韗
𫖔
岠
盄
擜
䏝
劆
佋
煛
𬳽
緈
謼
昋
腙
噡
蕀
梻
揌
糚
怟
昗
吰
崻
噆
硊
漎
羴
蕂
岤
潀
𨱑
𫚓
乥
饀
昛
奝
褈
焭
簘
奍
堸
弉
頀
幦
溞
艑
衠
鳦
葮
嘾
梈
暯
挊
𪡋
骳
怐
厈
犗
矴
躖
廫
錔
頣
傋
昮
##︰
##︱
##︶
##︿
##﹁
##﹂
##﹍
##﹏
##﹐
##﹑
##﹒
##﹔
##﹕
##﹖
##﹗
##﹙
##﹚
##﹝
##﹞
##﹡
##﹣
##！
##＂
##＃
##＄
##％
##＆
##＇
##（
##）
##＊
##，
##－
##．
##／
##：
##；
##＜
##？
##＠
##［
##＼
##］
##＾
##＿
##｀
##ｆ
##ｈ
##ｊ
##ｕ
##ｗ
##ｚ
##｛
##｝
##｡
##｢
##｣
##､
##･
##ｯ
##ｰ
##ｲ
##ｸ
##ｼ
##ｽ
##ﾄ
##ﾉ
##ﾌ
##ﾗ
##ﾙ
##ﾝ
##ﾞ
##ﾟ
##￣
##￥
##👍
##🔥
##😂
##😎
